#version: 0.2
Ä ±
Ġ t
i n
Ġ a
Ġ b
e r
Ġ .
Ġ ,
a r
Ġt h
a n
Ġ s
Ġ o
e n
Ġ i
Ã ¼
Ġ d
Å Ł
Ġ w
Ġ y
a t
i r
o r
Ġ g
Ġ h
Ġth e
a l
Ġ m
Ġ k
Ã §
l e
Ġ '
o n
Ä Ł
v e
n d
r e
o u
Ġ c
i l
Ġ p
Ġ f
l ar
s t
Ġ e
m e
Ġ in
a k
i t
a y
Ġ n
Ġt o
in g
Ã ¶
u n
s e
Ġb ir
Ä± n
l a
d e
l i
a s
Ġo f
Ġa nd
Ġ' '
i s
i m
l er
c e
i z
e d
Ġb u
l d
a m
Ġ Ã§
a d
Ġth at
e k
e t
i c
y or
Ġ ve
Ġy ou
e s
u r
r o
Ġ v
Ġw e
Ġd e
Ã¼ n
t h
Ġb e
Ġw h
er e
Ġo n
u t
an d
Ġi s
Ä± m
Ġi t
Ġ u
` `
a p
i k
l l
Ġ ÅŁ
o w
o k
Ä± z
a c
a h
d i
u m
l y
i on
en t
e y
Ġ l
Ä± r
Ġd o
a ÅŁ
o t
Ġ re
Ġa n
Ä± k
Ä± ÅŁ
Ġo l
a b
o m
Ġs o
g h
Ġ Ã¶
e m
Ġi Ã§
â Ģ
Ġh a
Ġ )
Ä± nd
Ġa l
Ġg Ã¶
âĢ Ķ
Ġf or
Ġ ?
i d
ĠiÃ§ in
a z
Ġa s
o l
Ġs a
un u
Ġ âĢĶ
Ġth is
o p
Ġ li
e l
c t
t er
Ġ r
i y
in e
Ġs e
v er
Ġs t
Ġn e
Ġa re
Ġ ``
Ġo ld
Ġ :
Ä± l
Ġa r
Ã¼ z
in i
Ġw as
Ġy ap
i b
it h
Ġold u
Ġd a
i ÅŁ
c h
r a
Ġ en
Ġw ith
Ġa b
Ġha ve
Ġ z
s an
d en
i yor
Ã¼ k
Ã¼ ÅŁ
k e
Ġg o
Ġthe y
Ä±n Ä±
u l
Ġ 1
Ġc an
Ġv er
' t
c a
Ġa t
il ir
Ġt e
Ġg e
s o
Ä± ÄŁ
al ar
al ly
m a
t e
Ġh e
Ġo r
g e
i st
lar Ä±
me k
Ä± yor
ou t
Ġb aÅŁ
i le
o d
Ã¼ m
Ã¼ r
at ion
Ä±nd a
d u
Ġ (
Ġs h
Ġp ro
er s
ĠÅŁ ey
n ow
Ġm e
ou ld
Ġe t
ah a
u se
ĠÃ§ ok
Ġc h
k i
t i
u z
in iz
Ġa ll
Ġw or
Ġab out
Ġb en
ar t
Ġs on
gh t
b u
m ak
Ġp e
a ÄŁ
an t
Ġd aha
u s
ar d
Ġin san
Ġl o
Ġ j
Ġb il
y e
Ġ la
en d
Ġg er
ĠgÃ¶ r
in de
or e
Ġm y
y le
Ġoldu ÄŁ
Ġwh at
Ġth ere
Ġn ot
Ġde ÄŁ
op le
i g
Ġt r
Ġc om
lar Ä±n
Ġe x
Ġpe ople
i f
Ġm o
ler i
ib i
c i
u st
il er
s s
an s
i ve
l Ä±
w e
Ġg ibi
d a
Ġd Ã¼ÅŁ
Ġh er
i p
m ay
ad a
u ÅŁ
in k
Ġo ut
Ã¼ y
Ġli ke
b ilir
i me
Ġ le
Ġc on
. .
0 0
Ä± s
Ġs u
Ġk ar
t en
o g
q u
Ġ. ..
Ã¼ l
it y
im iz
t a
in d
ĠÃ¶ n
u k
se l
p p
Ä±m Ä±z
Ġso me
b e
i de
y a
Ġa d
Ġy e
Ġk now
Ã¶ yle
th er
b ut
Ġs or
u nd
Ġth ink
Ġs p
ÄŁ er
ro m
Ġu p
Ġi f
Ġi st
lar ak
Ġv ar
Ġon e
' d
o me
ar k
Ġo larak
at e
Ġk i
Ġz am
Ġt ak
Ġb un
Ġg et
d Ä±
l an
l ay
Ġb Ã¼y
u re
u ll
Ġa y
Ġb y
ce k
ĠÃ§ al
ic h
i es
m as
u y
le m
Ġf rom
Ġol an
ĠdÃ¼ÅŁ Ã¼n
o c
Ġi ÅŁ
Ã¼ yor
Ġver y
t Ä±
y i
Ġt ek
Ġt ime
Ġn o
Ġse e
Ġj ust
Ġa f
Ġb iz
ar s
Ġk ad
il l
li k
Ġbu t
Ġwh ich
Ġcom p
b ir
i ght
Ġth ing
Ġs ay
Ġe d
Ä±n Ä±z
Ġu s
ca use
e ct
f er
Ġa pp
er i
Ġo ur
en ce
Ġi le
Ã¼ re
Ġthe m
ak i
la ÅŁ
ĠÃ§al Ä±ÅŁ
t o
Ġy aÅŁ
Ġm ak
Ġm ore
ÄŁ i
Ġf e
me s
me ye
ler in
Ġzam an
r u
u gh
Ġw ay
Ġk on
ou nd
Ġp o
Ġe v
la m
o se
Ġa m
Ġw ere
Ġthe se
Ġm il
Ġwh o
d an
k Ã¼
r en
Ġh al
Ã§ ek
on e
Ġwh en
ac k
Ä±nd an
Ġla ugh
a g
h er
o ÄŁ
r i
Ġ un
Ġh is
ou s
Ġp ar
Ä±n a
Ġlo ok
Ġ 2
Ġb ak
Ġs iz
Ġi l
Ġd en
Ġp re
ed en
unu z
Ġgo ing
ĠdeÄŁ il
Ġlaugh ter
l u
m an
n e
Ġth en
Ġh i
Ġc ould
ĠbÃ¼y Ã¼k
m Ä±ÅŁ
s iniz
Ġ ro
in in
or m
Ġh ay
Ġh ad
Ġh ere
al l
Ġk ull
Ġc a
Ġe ver
it e
Ġbu r
am a
ĠÃ§ Ä±k
Ġkad ar
m ent
r on
Ġb o
Ã¼ Ã§
Ġd i
Ġw ould
Ġg Ã¼n
ou r
Ġp er
Ã¼n kÃ¼
Ġwor ld
a f
t ir
Ġ Ã¼z
Ġ qu
Ġs ah
Ġm u
re at
Ġn ow
Ġyou r
Ġt ar
Ġd Ã¼n
Ġy er
Ġy ar
Ġh ow
il d
it t
im di
Ġbe cause
ac h
ĠgÃ¶ re
Ġwor k
a st
c ak
l Ä±k
t ur
y on
Ġt w
Ġy a
Ġy Ã¼z
lar a
ĠÅŁ ek
Ġre ally
Ġsh e
Ġger Ã§ek
Ġkull an
Ġa ct
Ġy ok
Ġg en
Ġthe ir
Ġm an
ay a
Ã¶ n
ce ÄŁ
th ing
Ġpro b
ĠÃ¶n ce
v i
y an
Ġt am
Ġi m
or t
Ġg ot
Ġh as
al k
Ġk ur
Ã¶ r
Ġu se
n ol
t r
y ou
Ġ ;
Ġa ma
an g
en i
Ġh ar
Ġto p
Ġdo ÄŁ
Ġex p
may a
a Ã§
b il
h e
k Ä±ÅŁ
p le
t Ä±r
an a
an k
Ġo k
Ġo la
Ġi yi
Ġd id
Ġe le
is i
ce s
Ġbu l
ac aÄŁ
Ġre s
Ġol m
Ġge Ã§
und a
ĠÃ¼z er
Ġprob lem
a de
c Ä±
k en
o s
u ally
Ġb unu
Ġo ther
Ã¼ c
Ġy Ä±l
ou gh
Ġc ar
il de
Ġin to
Ġu z
ap p
ik a
ac t
di ÄŁ
Ġne w
Ġson ra
ĠolduÄŁ unu
Ġye ars
Ġaf r
e st
m iÅŁ
o od
Ġs y
on g
ou n
Ġf ark
Ġe ÄŁer
la d
la use
ler ini
ic t
th e
Ġwh ere
ab ilir
Ġal kÄ±ÅŁ
iy e
ig n
Ġapp lause
Ġmak e
c on
l and
l Ä±nda
t Ä±ÄŁ
u d
Ã¼ t
Ġd ur
Ġm on
il i
ed i
ic i
Ġger ek
Ġil g
Ġbur ada
a ce
b er
d ay
d Ä±r
Ġb as
Ġb aÄŁ
Ġw ant
Ġy an
Ġg el
Ġk al
Ġk end
lar Ä±nÄ±
Ġn eden
ic al
ion s
Ġol uÅŁ
Ġsa ÄŁ
Ġoldu k
Ġever y
Ġtw o
ĠÅŁek ilde
a ge
k s
p t
u yor
en s
Ġd if
Ġy ol
le d
Ġp art
st em
ak at
li ÅŁ
ler e
ĠÅŁ u
Ġas lÄ±nda
Ġz or
Ġmo st
Ġmu ch
f e
Ġ !
Ġt as
Ġt Ã¼m
Ġa c
Ġs ist
Ġo ver
Ã¼ nd
Ġd uy
Ġw ill
Ġy et
al s
Ġk ay
nd er
me ler
Ġin ter
li on
iz e
Ġst art
Ġne ed
ra f
Ġben im
Ġinsan lar
ĠdeÄŁ iÅŁ
Ġkar ÅŁ
mas Ä±
ĠgerÃ§ek ten
Ġim p
Ġsy stem
a se
l Ã¼
w h
Ä± ld
ar Ä±
Ġs Ã¶yle
Ġy az
ir st
Ġg r
Ġk e
Ġk ind
Ġe m
im i
ĠÃ§ Ã¼nkÃ¼
Ġwe ll
ac ak
Ġan y
iyor um
Ä±ÄŁ Ä±
bilir siniz
00 0
Ä±s Ä±
Ġact ually
a in
d ir
i ce
m alar
t u
Ġt alk
Ġth ose
Ġs Ã¼re
Ġo y
Ġi k
Ġd ay
Ġd es
Ġy ak
at h
or s
Ġg Ã¼l
Ġh app
al Ä±
ou ght
Ġc ome
Ġn as
de ce
ĠÃ§ ek
Ġde v
th is
Ġbe en
ent s
ey e
Ġl itt
Ġsa dece
Ġhi Ã§
Ġtas ar
Ġsist em
Ġlitt le
e v
i se
l at
s a
s unuz
Ġ Ã¼l
in den
Ġa g
Ġa Ã§
Ġb ack
Ġs an
Ġy eni
Ã§ a
Ġf az
st e
Ġe k
Ġe l
me z
li c
li m
as Ä±
Ġwh y
Ġu nder
di yor
Ġl ong
ĠÃ¶ z
ĠÃ¶ ÄŁ
ĠgÃ¶ st
Ġsa v
Ġsa id
Ġhe p
od y
Ġbil g
Ġthing s
Ġdif fer
Ġfaz la
f orm
k a
l o
n Ä±
t Ä±m
Ä± p
Ġt an
Ġa z
or n
al Ä±k
Ġk o
Ġk en
le t
ve s
Ġf irst
Ġe s
Ġe de
me l
Ġto day
is s
es s
ab il
ĠÃ¶ l
Ġar t
Ġ1 5
Ġ1 9
Ġev en
Ġsah ip
Ġtam am
ĠgÃ¼l Ã¼ÅŁ
d er
g u
o j
Ġ 4
Ġt ab
Ġb ile
Ġb ig
ar e
Ġs c
Ġi h
ir e
Ġg ir
Ġh ak
Ġm et
le s
un un
ĠÃ§ oÄŁ
ro w
Ġv ard
san Ä±z
Ġge liÅŁ
Ä±yor uz
Ġtr y
Ġfe w
Ġnas Ä±l
ĠgÃ¼lÃ¼ÅŁ meler
b ile
g Ã¼n
k Ã¼r
m en
n et
p er
r an
s on
u ÄŁ
y en
Ġ 3
Ġt er
Ġt ra
Ġa ÄŁ
Ġb az
Ġb ana
er ek
ar y
Ġi de
ÅŁ imdi
at ed
Ġk ap
re e
Ġp ut
Ġf in
un a
Ä±n Ä±n
ad y
Ġv ide
Ġit s
ow n
ah k
Ġdo l
Ġte ch
ĠbaÅŁ ka
ti ÄŁ
ĠkarÅŁ Ä±
Ġdes ign
c ent
d Ã¼
d im
e p
g r
i h
t y
t Ã¼
t ing
v ing
Ġb Ã¶
Ġb Ã¶yle
ar ak
Ġth an
Ġo b
Ġi ki
Ġd Ä±ÅŁ
ÅŁ ek
at er
Ġh um
Ġk Ã¼Ã§
le ÅŁ
ve d
Ġc oun
Ã¶ z
is h
ler de
ce ss
ek i
ic a
ic k
es i
Ġbe ing
Ġu y
Ġdo es
ĠÃ¶ r
Ġal so
iy le
iyor uz
Ġgo od
Ġ1 0
Ġor t
Ġet k
Ġch ild
ĠgÃ¶r Ã¼n
ĠolduÄŁ u
ĠÃ¶n em
Ġsp e
Ġbun un
Ġay nÄ±
oc uk
Ġman y
Ġdiffer ent
Ġih t
ÅŁek kÃ¼r
ĠkÃ¼Ã§ Ã¼k
b unu
g an
g ine
i ver
r ough
s h
s i
u c
Ġt ah
in t
Ġb it
Ġth ought
Ġth rough
Ġs en
Ġd Ã¶n
Ġw ar
at her
or y
Ġg reat
Ġh em
Ġm ay
Ġk ahk
ve l
Ġf a
se t
as Ä±nda
Ġof f
ld i
Ġbe l
Ġbe y
Ġl ot
ĠiÃ§in de
Ġas k
Ġli fe
Ġr ight
ib le
Ġla st
Ġcom m
we ll
sel f
Ġfe el
Ġkon uÅŁ
Ġqu est
Ġtar af
ĠdÃ¼n y
Ġtop l
Ġuz un
ĠoluÅŁ tur
ĠgÃ¶st er
e ÅŁ
f or
f akat
i e
m am
o st
t im
t ro
u p
x t
â Ļ
Ġb l
Ġs im
Ġs Ã¼r
Ġd is
Ġd iye
at a
al th
Ġc r
Ġp h
lar Ä±mÄ±z
se k
se s
th ere
ĠÅŁ imdi
ab ile
Ġso ci
Ä±nd aki
iyor lar
Ġsh ow
Ġsome thing
Ġtak e
Ġtek nol
Ġam er
nol og
ĠdoÄŁ ru
Ã¼t Ã¼n
Ġdur um
Ġinter net
wh at
Ġsav aÅŁ
Ġtech nolog
Ġcoun tr
Ġiht iy
âĻ «
Ġteknol oj
d um
f ore
k et
m in
s u
s ide
t ere
v an
v en
w n
w ay
y al
Ġ er
Ġt Ã¼r
Ġb et
Ġb ab
Ġy Ã¼k
Ġh at
Ġm er
Ġm at
Ġm ut
Ġk Ä±s
Ġc e
Ġc o
Ġc al
Ġp r
Ġp la
Ġf ound
lar dan
ay Ä±
la dÄ±
im de
ic ally
th at
Ġon ly
and a
Ä±m Ä±
ah alar
Ġdo ing
Ġre p
om ik
Ġha st
Ġar ab
Ġge ldi
ation s
Ġye ar
Ġed er
Ġmil lion
Ġro b
Ġdi ÄŁer
Ġfark lÄ±
Ġolduk Ã§a
ĠÃ¼l ke
ĠÃ¶ÄŁ ren
Ġken di
ĠÃ¶nem li
Ġkahk ahalar
b i
d ur
f f
g er
j ect
m ad
o ther
Ġ âĻ«
Ġt ur
Ġb ah
Ġs es
Ġs Ä±k
en iz
Ġd own
Ġd ata
Ġh o
Ġm i
Ġm ade
Ġk Ã¶
Ġk iÅŁ
ÄŁ in
ve t
Ġc reat
il en
Ġp lan
lar la
lar da
li e
Ġon un
ĠÅŁ e
Ä±r ak
id en
Ġsa me
Ġen d
Ġge le
Ã¼m Ã¼z
end ir
Ġad am
man Ä±n
ĠÃ¼zer ine
Ġtamam en
Ġ4 0
Ġhak k
Ġbaz Ä±
Ġdol lar
a j
b en
c ome
i a
m az
m uÅŁ
n a
n ek
r ar
s in
t an
u al
Ġ Ã¼
Ä± y
Ġa k
Ġb Ã¼tÃ¼n
er g
Ġs m
Ġi ma
Ġd r
Ġd edi
ir ket
Ġg i
Ġh Ä±z
Ġk or
le te
Ġc ent
Ġc ol
Ġp ol
Ġf il
Ġf ik
Ġe ÅŁ
Ġe ÄŁ
me d
me yi
Ġin v
it s
it al
it ed
Ġto o
ĠÃ§ ocuk
Ġde m
Ġde st
th ey
ap h
um uz
ab le
ĠgÃ¶ z
Ġse Ã§
Ġne ver
ul t
du ÄŁ
Ġsh ould
Ġet mek
Ġet ti
Ġinsan larÄ±n
Ġtr ans
Ġmo de
may Ä±
Ġle t
Ġsor t
Ġsor u
Ġcomp an
eri ence
Ġsiz e
yan i
Ġexp erience
Ġola cak
con om
Ġyan i
Ġstart ed
Ġko ÅŁ
Ġvide o
Ġtaraf Ä±ndan
Ġpol it
a v
d s
f t
i i
l in
l Ä±yor
l ant
n ing
n Ä±n
s Ä±nÄ±z
t il
u e
y p
z er
Ã ¢
Ġt ut
Ġb Ä±rak
an Ä±n
an ce
Ġs in
Ġo d
Ġi se
Ġd ik
Ġy ay
Ġg it
al Ä±m
Ġk at
Ġk ut
Ã§ e
Ã§ Ã¼nkÃ¼
Ġp as
Ġf am
Ġf ood
Ġe conom
Ġin c
Ġin st
it er
it ion
se d
ler den
ler inde
ĠÃ§ ev
et her
Ġve ya
Ġbe fore
ĠÅŁ irket
ey i
Ä±r Ä±m
Ġdo lar
Ġre al
Ġan n
Ġan im
Ġol ur
Ġso s
em at
Ġal an
Ġfor m
ct ion
Ġse v
Ġse be
Ġst and
Ġyap tÄ±ÄŁ
Ġte ll
Ä±ÄŁ Ä±nÄ±
alar Ä±
du c
Ġben i
us u
og r
imiz i
Ġthink ing
Ġbun lar
Ġbiz im
ĠyaÅŁ am
mes i
Ġmil yon
Ġ2 5
Ġil k
Ġhay al
Ġca me
ict ure
ĠsaÄŁ lÄ±k
Ġoy un
Ġyak laÅŁ
form ation
Ġide a
ĠkarÅŁÄ± laÅŁ
ĠbÃ¶ l
ĠÃ¶r nek
iver s
Ġtopl um
Ġrob ot
a mes
b iz
b ur
c k
i v
i x
k in
n i
o b
o ol
p h
t ty
y s
Ġ lar
Ä± lar
Ä± la
Ä± cÄ±
in ci
Ġb r
Ġb la
Ġb ra
Ġb ody
Ġth ree
Ġs ur
Ġs Ä±r
Ġs ound
en in
Ġd er
Ġy at
at ing
Ġg ive
Ġm om
Ġm us
Ġm ight
Ġk an
Ã§ ok
Ġp op
Ġp lay
Ġf ind
Ġe diyor
ay d
Ġbir i
la s
de ki
im in
ler le
am ple
ro ss
Ġwe b
Ġde vel
th s
th ank
ok t
aÅŁ tÄ±r
Ġsa w
Ġr un
iy i
Ġar ound
Ġhe alth
ist s
ĠbaÅŁ ar
ĠbaÅŁ lad
ers on
ĠÅŁey i
Ġet meye
Ġger i
iler in
Ġle ar
Ġkar ar
imiz in
ta in
be cause
Ġsor un
Ġist iyorum
Ġbun a
mas Ä±nÄ±
ĠiÅŁ e
Ġaf ter
Ġbiz e
Ġcomp lete
Ġpar Ã§
Ġden ey
Ġpre tty
Ġhi gh
Ġhay at
ment s
Ġqu ite
Ġyar at
Ġwork ing
ĠÃ¼zer inde
ĠalkÄ±ÅŁ lar
Ġilg ili
ĠhiÃ§ bir
Ġek on
ĠÃ¶z el
Ġhum an
ÅŁekkÃ¼r ler
Ġtah min
Ġquest ion
eÅŁ it
Ġce ll
Ġcal led
ĠÅŁe h
Ġdollar s
Ġmode l
Ġdevel op
Ġcomplete ly
a ve
b un
c an
d ik
f ul
f ect
g il
l en
o ll
p a
r Ä±
r is
u lar
w a
Ġ ent
Ä± t
Ġt ed
Ġt yp
Ġa v
Ġa ld
Ġth ank
Ġs er
Ġo wn
Ġd one
Ġw ent
Ġy Ä±ld
Ġg ay
Ġg id
Ġh ik
Ġh our
Ġm in
Ġm iss
Ġk Ä±z
ÄŁ e
re ady
Ġc all
il miÅŁ
Ġp icture
Ġf act
Ġf ish
Ġe ach
Ġe duc
me m
Ġin an
Ġin tere
Ġin formation
ak lan
Ġn ere
Ġbir k
Ġbir az
la mak
de d
li yor
is k
ler di
ler ine
ce ÄŁi
ĠÃ§ Ã¶z
ĠÃ§ eÅŁit
ic s
Ġv Ã¼c
Ġon larÄ±
and s
Ä±m a
di ÄŁi
ot t
Ġre c
Ġan lat
Ġol may
id s
ol ut
Ġsa at
Ġli ght
Ġr u
iy et
Ä±l mÄ±ÅŁ
Ġar k
Ġar asÄ±nda
Ġar aÅŁtÄ±r
Ġyap mak
Ġen g
Ä±yor um
ĠbaÅŁ ladÄ±
du k
us h
Ġbil lion
ĠgÃ¶r Ã¼yor
Ġex ample
Ġmo ve
iler i
ĠdÃ¼ÅŁ Ã¼nd
Ġsu b
ĠdÃ¼ÅŁÃ¼n Ã¼yor
lik te
Ġhal e
Ġun til
Ġhis se
Ġlook ing
Ġ2 0
Ġsiz i
ĠÃ§Ä±k ar
tir e
ĠdÃ¼n ya
ĠyÃ¼z den
Ġuse d
Ġola bilir
Ġele k
Ġele ct
Ã¼c re
abilir iz
Ġmon ths
Ã¼nd e
Ġhapp en
Ġunder st
Ġvard Ä±
Ġvard Ä±r
bile ceÄŁ
Ġcomm un
Ġtechnolog y
Ġihtiy ac
Ġpla ce
Ġtur n
Ġbah set
Ġhakk Ä±nda
Ġsm all
Ġfik ir
Ġekon omik
Ġintere st
b o
b le
b ody
d ict
e ÄŁer
f i
g in
i ed
k es
l endir
r y
t ik
t Ä±k
t Ã¼m
u Ã§
w ard
y la
z Ä±r
Ġ Ã¼n
Ġ Ã¼Ã§
Ġt aÅŁ
in Ã§
Ġa ÅŁ
Ġb er
Ġs al
Ġs Ã¶
Ġs ek
Ġs ch
Ġd ir
Ġd ed
Ġd ere
Ġy al
Ġy ere
Ġy Ã¶n
at en
ir c
Ġg Ã¼z
Ġg Ã¼Ã§
Ġg row
Ġh ist
Ġm Ã¼
Ġm as
Ġm is
Ġm ed
Ġm ind
Ġk ab
Ġk om
Ġk aÃ§
le y
on s
ve st
re en
Ġc ap
Ġc our
Ġp ay
Ġn um
Ġn orm
li ke
Ġof ten
is ion
is ini
ce pt
Ġbu ld
Ġbu ild
Ġbu gÃ¼n
ek et
et y
ur al
Ġde ci
Ã¼n Ã¼
Ġon a
Ġon u
Ä±m da
Ä±z Ä±
ah at
ent ion
Ġl iter
Ä±r s
Ġre as
Ġan lam
Ġan ne
Ġol mak
Ġol uyor
em in
Ġha zÄ±r
Ġal t
Ġal ready
Ġli ve
Ġli ber
ter s
iy on
Ġst ill
Ġ1 1
Ġte le
Ġhe ar
Ġor gan
Ä±yor lar
ile s
Ġpro cess
ĠÅŁey ler
Ġlo op
Ġj ob
Ġbil im
larÄ±n a
Ġcon s
Ġsp ace
Ġbun larÄ±n
ĠbÃ¼y Ã¼
ĠdÃ¼ÅŁÃ¼n e
ĠiÅŁ te
Ġtek rar
mes ini
lerin den
Ġwho le
Ġhal a
Ġsiz in
Ġhay van
Ġbo y
Ġper cent
Ġyer ine
ĠgÃ¶re v
Ġhar eket
acaÄŁ Ä±m
Ġproblem s
Ġafr ika
Ġafr ica
Ġmon ey
Ġkend iler
Ġzor unda
Ġac ross
Ġimp ort
Ġag o
Ġbilg i
Ġes ki
ĠÃ§oÄŁ u
Ġort aya
Ġchild ren
tro l
Ġcountr y
ĠÃ¼ st
Ġfil m
Ġeconom ic
ĠÃ§ev re
Ġanim als
Ġlar ge
Ġhik ay
Ġeduc ation
Ġbirk aÃ§
Ġinterest ing
b el
c o
c om
g en
g Ä±n
i an
i Ã§
m iyor
n ey
o ice
r as
r ic
s p
s un
s ini
u di
v id
y ar
y Ä±z
z e
Ġ 6
Ġ 9
Ġ Ã¼re
in a
in es
Ġb ar
Ġb ek
Ġb orn
Ġb alÄ±k
er j
ar et
an ge
Ġs il
Ġs ci
Ġs eri
Ġs ix
Ġi y
Ġi la
Ġi leri
Ã¼ ÄŁ
Ġd et
Ġd Ã¼z
Ġd ra
Ġd ri
Ġw il
Ġw ater
Ġy en
at ch
Ġh op
Ġh el
Ġh ard
Ġh Ã¼cre
al t
Ġm Ä±
Ġm al
Ġm ac
Ġm ark
Ġm iles
Ġk it
Ġk im
Ġk es
Ġk ey
re t
re am
Ġc l
Ġc er
Ġc ity
il k
il y
il ity
Ġf ar
Ġf ak
Ġf ur
Ġf ot
Ġf akat
Ġf oll
Ġe ar
Ġe lim
Ġe vet
me t
Ġin di
Ġin vest
it im
it ies
ay dÄ±
Ġto ld
se ase
as a
as Ä±na
is m
is ay
ler imiz
ler iyle
iz ed
ed ir
am m
am p
ad ers
ad aki
es inde
Ġv al
Ġde f
Ã¼n Ã¼z
Ġbe st
Ġbe lie
Ġon lar
Ä±m Ä±n
Ġu m
Ġu ÄŁ
ap er
Ä±z ca
Ġan other
ĠÃ¶ yle
Ġha v
Ġr ather
Ġr isk
Ġst op
Ä±l an
Ġyap abil
Ġen v
Ġz aten
Ġ1 3
Ġte mel
Ä±ÄŁ Ä±mÄ±z
alar Ä±n
mek ten
Ġpro du
Ġch ange
iniz i
ĠolduÄŁ umuz
ĠdeÄŁ er
Ġher kes
bilir iz
Ġcon t
Ġsu Ã§
Ġsu re
Ġzam anda
Ġget ir
Ġsay s
Ġkon u
Ġhal f
oÄŁ raf
mÄ±ÅŁ tÄ±m
Ġdi sease
ĠgÃ¶re bilirsiniz
Ġgen el
yan Ä±n
Ã¶r t
Ġbul un
Ġres im
diÄŁ im
Ġilg inÃ§
Ġbas it
ĠbaÄŁ Ä±m
Ġyet iÅŁ
Ġimp ro
Ġke z
Ġtalk ing
Ġday s
Ġtasar Ä±m
Ġag ain
ĠÃ¶l Ã¼m
Ġtab i
Ġtry ing
Ġfin al
dÃ¼ ÄŁ
ĠbÃ¶yle ce
Ġuy gu
Ġbey az
Ġsoci al
Ġamer ica
ĠyÃ¼k sek
Ġmillion s
Ġgele cek
Ġima gine
Ġcol le
Ġsos yal
ogr aph
ĠyaklaÅŁ Ä±k
bur ada
Ġbla ck
Ġbra in
Ġolmay an
Ġhisse diyor
Ġunderst and
ĠsÃ¶ y
Ġsch ool
ĠgÃ¼z el
Ġcour se
Ġnorm al
Ġreas on
Ġimport ant
Ġfot oÄŁraf
Ġfoll ow
a ut
b ek
b Ã¶yle
d aki
j e
k at
k Ã¼n
m s
o f
p ek
p eki
r at
s ion
y n
y Ã¼z
Ġ -
Ġ Ä±ÅŁ
Ġt un
in c
Ġb ilir
Ġb ott
an Ä±
an cak
Ġs Ä±nÄ±
Ġo il
Ġo tur
Ġi z
Ã¼ le
Ġd in
Ġd Ã¶
ÅŁ ey
Ġw om
Ġw alk
Ġy aÄŁ
Ġy ard
at i
at Ä±
ir on
or ed
or ies
Ġg ar
Ġg Ã¼
Ġh im
Ġh ip
Ġh ome
al ity
Ġm ik
Ġm id
Ġm iy
Ġm ach
Ġm ath
Ġm amm
Ġk ids
le yen
Ġc id
Ġc irc
Ġp et
Ġp ur
Ġp ri
Ġp ush
Ġf l
Ġf un
Ġf el
Ġf ace
Ġe g
Ġe den
me li
Ġin du
Ġin side
Ġin gil
ay an
ay Ä±m
Ġn et
se la
Ġbir likte
la ma
as Ä±ndaki
Ġand a
iz i
Ġbu sin
ad an
ad Ä±k
et s
ur y
Ġv ir
Ġbe h
Ġbe ca
Ġbe bek
Ġu c
um a
Ä±r d
Ä±r lar
Ġre m
Ġre st
Ġan lay
Ä±ÅŁ tÄ±r
Ġol masÄ±
ab er
ĠiÃ§ er
âĢ Ļ
Ġha f
Ġal way
id ir
ol og
Ġr en
Ġst at
Ġst age
iÅŁ im
Ġen gine
ul uk
te ÅŁekkÃ¼rler
Ġch ar
Ġch ang
ti ve
Ġson uÃ§
Ġinsan larÄ±
Ġla b
ĠgÃ¶r d
Ġex c
Ġmo ther
ss ible
we en
Ġle ft
Ġcon st
Ä±s Ä±z
Ġsu pp
og le
sel ves
Ġtak ip
Ġget ting
ĠdÃ¼ÅŁÃ¼n meye
Ġtime s
Ġkad Ä±n
lik le
Ġcomp ut
Ġed il
Ġile t
ru ct
Ġpo st
Ġpo int
Ġmil yar
ag es
ous ly
Ġden iz
Ġpre s
Ġmu h
Ġtar ih
ĠdÃ¼n yanÄ±n
itt ing
Ġkur t
ang i
Ġbul und
Ġafr ic
con d
edi ÄŁ
Ġgel en
ens ive
Ġpart ic
Ġkay b
Ġkay n
ĠaÃ§ Ä±k
ste ad
Ġsc reen
tiÄŁ ini
ĠdÄ±ÅŁ arÄ±
iyorlar dÄ±
Ġcountr ies
Ġbet ter
Ġbet ween
Ġbab ies
Ġmut l
Ġeder im
Ġdest ek
Ġpolit ik
Ġinc re
Ġlear n
Ġgid erek
Ġnere de
olut ion
Ġyal n
Ġnum ber
bel ki
Ġhel p
isay ar
Ġenv iron
ĠsÄ±nÄ± f
Ġbeca me
Ġalway s
8 0
a x
a il
b r
b y
b on
b unun
c c
c al
c le
d aha
d iler
e w
e ver
f us
g i
g o
g ul
h end
i o
l s
l uk
m y
m is
m ac
m Ã¼yor
m iyorum
m ost
n y
n it
n ect
n ess
o z
s ive
t al
t re
u b
u v
v at
y ing
Ġ 5
Ġ 7
Ġ [
Ġ ]
Ġ Ã¼r
Ä± c
Ġt em
Ġt ip
Ġa ile
ar ch
Ġth ough
Ġs at
Ġs ou
Ġs un
Ġs ab
Ġs el
Ġs now
Ġs Ã¶z
Ġi c
Ġi ll
Ã¼ s
Ġd ak
Ġd ok
Ġd ers
ÅŁ a
Ġw a
Ġw o
Ġy es
at ure
ir d
ir s
or d
or k
Ġg al
Ġg one
Ġh or
al an
Ġm ar
Ġm ap
Ġm em
Ġm Ã¼k
Ġm Ã¼m
Ġm aj
Ġk il
Ġk art
Ġk ne
Ġk av
le mek
le ss
on y
on der
nd an
re ad
re ss
Ġc re
Ġc ur
il ik
Ġp a
Ġp en
Ġp ek
Ġp ain
Ġp ick
Ġf ra
Ġf ive
Ġf oc
Ġf ree
lar ca
lar Ä±ndan
Ġin f
Ġin stead
Ġin ÅŁa
it ter
un ch
se m
la ss
de t
li ÄŁ
li ÄŁi
li sh
as yon
Ġand erson
is ible
ler ce
ce d
am Ä±z
am az
ĠÃ§ iz
ad s
ek s
et e
Ġyou n
ro y
Ġde ath
Ġwh ite
Ġwh ether
Ġon larÄ±n
Ġon lara
ut es
ow s
ow er
ac a
Ġl ate
Ġre ady
Ġan laÅŁ
Ġol mas
Ġso l
ĠÃ¶ de
em mel
Ġha wa
Ġal g
id ent
az ing
Ġsa ve
Ġli st
Ġli ves
ct ors
Ġr ad
Ġse en
Ġst ud
Ġst ory
Ä±l Ä±k
Ä±l maz
Ġar aÃ§
Ġyap ar
Ġyap maya
Ġyap tÄ±k
iÅŁ te
Ġen erj
Ġab ility
ke z
Ġgo ogle
Ġ1 8
Ġat t
Ġte xt
Ä±ÄŁ Ä±m
Ä±ÄŁ Ä±nÄ±z
te st
Ġor ada
mek te
Ġpro ject
Ġme et
use d
bu gÃ¼n
aÄŁ Ä±
Ġj ames
Ġbil iyoruz
ĠgÃ¶r dÃ¼ÄŁ
Ġmy self
Ġcom ing
if t
if ic
ci al
Ġle ast
Ġcon f
Ġcon v
Ġsu ch
und an
Ġist ediÄŁ
Ġtak es
Ġget ire
ure s
oc k
tÄ± lar
Ġbiz i
Ġsay f
Ġsay Ä±sÄ±
Ġus ing
Ġapp ro
lerin in
Ġway s
Ġpar a
Ġ2 6
lu yor
man Ä±z
ne ÄŁin
Ġhi v
ĠÃ§Ä±k tÄ±
Ġbo ok
ĠgÃ¼n ey
Ġper asa
Ġtw itter
ceÄŁ im
vi ces
Ġhar c
Ġhar it
bil en
he p
Ġok ay
Ġok ul
acaÄŁ Ä±mÄ±z
Ġolm ad
Ġolm az
Ġolm alarÄ±
diÄŁ iniz
oun t
the se
ud ur
Ġgerek ir
Ġbas ic
Ġgel ir
Ġolduk larÄ±
Ġevery thing
Ġsystem s
ase d
Ġgr ou
Ġke ÅŁ
Ġem p
Ġem in
malar Ä±
Ġoy n
eye can
Ġhep si
Ġtan e
Ġko y
men in
uÄŁ um
Ġ3 5
Ġob ject
Ġspe ak
ĠdÃ¶n em
Ġmay be
Ġbel ki
Ġquest ions
Ġbl og
Ġsim ple
abile cek
Ġamer ika
Ġihtiy aÃ§
Ġhat Ä±r
Ġmer kez
Ġmat emat
ĠkÄ±s m
Ġhast alÄ±k
ĠkÃ¶ tÃ¼
Ġcreat ing
erg y
Ġkor k
Ġcompan y
Ġcompan ies
Ġod aklan
Ġpas if
Ġstand ard
ĠsaÄŁlÄ±k lÄ±
Ġyat Ä±rÄ±m
okt or
ĠbaÅŁar Ä±sÄ±z
Ġcell s
ĠÅŁeh ir
Ġdere ce
Ġgrow th
Ġliter ally
Ġliber al
Ġsci ent
Ġcer tain
Ġbelie ve
ĠgÃ¼ ven
Ġmath emat
Ġbusin ess
Ġenviron ment
hend is
ĠmÃ¼k emmel
ĠmÃ¼m kÃ¼n
Ġhawa ii
a me
b in
b al
b aÅŁ
b iy
b Ã¼y
c y
c Ã¼
d le
d Ã¼r
d oÄŁ
e f
e me
f et
f ic
g et
g es
g Ã¶r
g ether
h ow
h angi
i al
i gh
j ital
k li
k end
l ow
l ine
l Ã¼yor
m aÅŁ
m ore
n ik
o v
o in
o ld
p e
p art
r Ã¼
r it
r am
r um
r ip
r ate
r act
s ak
s iz
s am
s he
s ade
t on
t am
t iler
t Ã¼re
t Ã¶r
t eki
u ff
y im
y di
Ġ %
Ġ 8
Ġ ut
Ġt it
in y
in ter
Ġa er
Ġa ir
Ġa way
Ġb al
Ġb ad
Ġb ank
Ġb iÃ§
er m
er n
er al
ar a
ar pa
Ġth ird
an e
Ġs it
Ġs qu
Ġs ide
Ġo h
Ġo t
Ġo pt
Ġi ler
Ġi liÅŁ
Ã¼ p
Ã¼ el
Ġd an
Ġd ist
Ġd ru
Ġw ind
Ġw onder
ir es
Ġh y
Ġh and
Ġh eyecan
al e
al et
Ġm en
Ġm im
Ġm es
Ġm ey
Ġm ot
Ġm Ã¼z
Ġm ant
Ġk Ä±ÅŁ
Ġk az
Ġk Ã¼l
Ã§ ocuk
on un
ÄŁ Ã¼
nd e
re s
Ġc lic
il t
il ar
il ere
Ġp ac
Ġp eri
Ġp ie
Ġp lant
Ġp erson
Ġf ut
Ġf ac
Ġf ant
Ġf ull
Ġf ight
Ġf ri
Ġf ron
lar Ä±m
lar Ä±nda
st an
Ġe qu
Ġe lem
Ġe ff
me leri
Ġin s
Ġn ice
Ġto gether
un ca
Ġbir leÅŁ
Ġbir ÅŁey
Ä±n Ä±r
la maya
de s
as ing
is yon
im s
ed ik
Ġbu ilt
ld Ã¼r
am er
am an
ĠÃ§ Ã¶
ad aÅŁ
ic iler
ro l
Ġv ere
Ġv ict
Ġv oice
Ġwe ar
Ġde p
Ġde ep
Ã¼n e
Ġbe come
Ġbe gin
Ġbe aut
Ġwh ile
ut ions
Ġu f
Ġu Ã§
Ġu laÅŁ
ik alÄ±
ĠÅŁ unu
ĠÅŁ Ã¶yle
ok ta
ac ter
ah il
Ġl ay
Ġl ink
Ġdo lay
ot e
Ġal Ä±n
id a
ĠiÃ§in e
unu yor
Ġr ahat
Ġse em
Ġse fer
Ġse cond
ver n
ver age
Ġne ur
Ġne xt
Ġyap mam
Ġda ÄŁ
Ġen ergy
Ġwith out
Ġab le
Ġgo vern
Ġ1 00
Ġver i
Ġte ÅŁ
Ġte ÅŁekkÃ¼r
alar da
te xt
Ġhe de
Ġhe ard
Ġor ta
ge Ã§
ge st
ist ic
Ä±yor sunuz
ĠbaÅŁ lam
ĠbaÅŁ lÄ±yor
ile d
ile ÅŁ
Ġpro f
Ġpro gr
Ġpro je
ers iz
ĠÅŁey leri
Ġme sela
Ġet raf
ti mes
Ġben ce
Ġben zer
Ġson una
Ġson uc
ard a
Ġlo g
Ġlo ve
Ġlo se
Ġlo cal
Ġbil iyor
Ġbil miyorum
ĠgÃ¶r me
ĠgÃ¶r Ã¼ÅŁ
ĠgÃ¶r meye
inde ki
ĠolduÄŁ unda
Ġtr end
Ġmo bil
ive s
Ġout side
Ġle aders
Ġcon nect
Ġkar maÅŁ
Ä±mÄ±z Ä±n
Ġist er
Ġist iyor
lan mÄ±ÅŁ
uy la
Ġno thing
Ġsee ing
ĠÃ§alÄ±ÅŁ tÄ±ÄŁ
ĠyaÅŁ ay
Ġmak ing
Ġmak ine
Ġpo lic
Ġam azing
Ġam ount
ag ed
Ġun ivers
Ġhis set
Ġpar al
Ġpre ss
Ġpre dict
unuz u
lu ÄŁ
man y
mÄ±ÅŁ tÄ±
Ġro om
ron ik
ron ome
Ġbo z
Ġyer de
ĠyÃ¼z de
Ġkullan mak
Ġyok s
ceÄŁ ini
ceÄŁ imiz
Ġim k
tr ik
Ġhar ika
Ġok um
acaÄŁ Ä±z
Ġolm am
ĠgeÃ§ en
ĠgeÃ§ ir
ĠÃ¼zer inden
Ã¼c Ã¼
Ġcar e
Ġuz ak
Ġafr ikalÄ±
lad Ä±m
ici an
Ġgerek en
ĠbaÄŁ lÄ±
Ġyan l
Ġgel mek
Ġneden i
ks Ã¼el
Ġduy duÄŁ
Ġneed s
ĠdeÄŁiÅŁ ik
Ġkind s
Ġany thing
Ġik na
Ġik inci
Ġhapp ens
Ġcome s
Ġdev am
Ġdev let
Ġsan at
ĠgÃ¶st ere
Ġbilg isayar
Ġtan Ä±m
Ġede cek
Ġart Ä±k
Ġ19 8
ĠaÄŁ Ä±r
Ġspe ed
Ġsen e
Ġbel ir
Ġfeel ing
ĠdÃ¼ny aya
ĠgÃ¶ster mek
ĠsÃ¼r Ã¼
Ġph ot
Ġsoci ety
Ġshow s
Ġteknoloj i
Ġhat ta
mad an
ĠkiÅŁ i
ĠhÄ±z lÄ±
Ġcent ury
ĠeÄŁ it
ĠseÃ§ im
Ġsin ce
Ġdik kat
Ġfam ily
Ġinst ance
Ġstand art
ĠyaptÄ±ÄŁ Ä±mÄ±z
Ġmilyon larca
ĠbÃ¶l ge
ĠbÃ¶l Ã¼m
Ġder in
Ġmom ent
Ġhealth y
Ġdeney im
bun lar
rÄ± ca
Ġent ire
Ġhour s
Ġmin utes
Ġinan Ä±lmaz
Ġ20 1
Ġelek trik
Ġhappen ed
Ġturn ed
Ġbahset mek
ĠÃ¼n ivers
Ġded im
Ġhist ory
ĠmÃ¼ hendis
Ġbuild ing
Ġdeci ded
Ġalt Ä±nda
Ġtele v
Ġhear ing
Ġhayvan lar
Ġkendiler ini
Ġhikay e
Ġseri ous
Ġdri ver
Ġkit ap
Ġcl ose
Ġfur ther
Ġum ut
ĠolduÄŁumuz u
Ġimpro ve
bÃ¶yle ce
ĠÄ±ÅŁ Ä±k
Ġbilir siniz
Ġyard Ä±m
Ġmid dle
Ġcid di
Ġnet w
Ġbeh ind
Ġstat es
Ġexc ited
Ġyaln Ä±zca
uv ar
Ġsel f
Ġdak ik
Ġmaj or
Ġkne w
Ġcre ate
Ġfoc us
Ġgrou p
Ġmatemat ik
bÃ¼y Ã¼k
sade ce
Ġsqu are
Ġdru g
Ġpac ific
Ġperi od
Ġfut ure
Ġfant ast
Ġfri end
ĠkarmaÅŁ Ä±k
Ġpolic y
a ise
b az
b ation
b ers
c u
c orn
d y
d ing
e cek
f in
f on
f il
f fer
f ace
g ir
g un
g ed
g ini
g us
h ay
h od
h ood
h like
i ir
j an
j ust
k o
k Ä±
k ar
l Ã¼k
l end
l Ä±lÄ±k
m il
m ic
m Ã¼ÅŁ
n in
n er
n al
n es
n eden
o li
o ch
p lar
p et
p ose
p ost
r in
r al
r im
r ac
s w
s Ã¼
s ur
s Ä±z
s uz
s inin
t um
t edir
u la
u ge
v ity
v ide
w ise
x ual
z Ä±m
Ä± d
Ġt a
Ġt iny
in di
in ste
in ess
Ġa w
Ġa st
Ġa li
Ġa cÄ±
Ġa part
Ġa verage
Ġb or
Ġb ay
Ġb and
Ġb eden
Ġb ron
Ġb ang
Ġb ise
er ed
Ġth ous
an other
Ġs w
Ġs Ä±
Ġs ey
Ġs itting
Ġs low
Ġo cc
Ġi d
Ġi v
Ġi ran
Ã¼ st
Ã¼ fus
Ġd iyor
Ġd ig
Ġd ream
Ġd oktor
Ġd arpa
Ġd ahil
Ġw ron
Ġw inter
Ġy Ã¶
Ġy ab
Ġy ine
at t
at ors
ir t
ir ed
or i
or ida
Ġg u
Ġg ent
Ġg iy
Ġg ra
Ġg ide
Ġg uy
Ġg ru
Ġg itt
Ġg ather
Ġg ames
Ġh en
Ġh ot
Ġh uge
al ay
Ġm ad
Ġm Ä±s
Ġm ort
Ġm ention
Ġk Ä±r
Ġk ill
Ġk af
Ġk Ã¼t
Ġk lin
Ġk Ä±rs
le k
on es
re ds
ou ble
Ġc le
Ġc ou
Ġc art
Ġc ust
Ġc og
Ġc ev
Ġc lin
Ġc atch
il la
Ġp at
Ġp al
Ġp le
Ġp ast
Ġp aper
Ġf iy
Ġf ib
Ġf ig
Ġf ast
Ġf lo
Ġf erm
lar dÄ±
lar dÄ±r
lar sa
st er
st ar
st al
Ġe th
Ġe ll
Ġe inste
me di
me yen
Ġin e
Ġin se
it es
it ive
it ary
ay et
Ġn Ã¶
Ġn es
Ġn ation
Ġn ight
Ġn okt
Ġn ature
Ġn okta
Ġn Ã¼fus
Ġto ok
Ġto ol
Ġto wn
un luk
se de
se ss
se arch
Ġbir bir
Ġbir Ã§ok
la bil
li p
li ght
li ÄŁin
li ÄŁe
as it
as Ä±nÄ±
is ine
is inde
ler iniz
iz m
iz ation
ed im
Ġbu y
Ġbu dur
am Ä±
am ik
ĠÃ§ ar
ĠÃ§ ift
ad ay
ek im
Ġyou tu
ro te
Ġv ak
Ġv is
Ġv ur
Ġv ol
Ġv illa
Ġwe st
Ġde al
Ã¼n cÃ¼
th en
Ġbe ÅŁ
Ġbe la
Ġon to
and an
and Ä±r
and Ä±ÄŁÄ±nÄ±z
Ġis lam
Ġit self
ap e
ll Ã¼
ĠÅŁ ar
ĠÅŁ ans
ĠÅŁ iir
ok ras
ah i
di p
di ÄŁer
um p
um u
Ġl and
Ġl ater
Ġl unch
Ġdo ctors
Ġre g
Ġre fer
Ġre search
Ġan t
Ġol ay
om b
om s
ĠÃ¶ ldÃ¼r
Ġal tÄ±
Ġal most
Ġfor ward
id er
Ġas s
Ġas la
Ġas ya
Ġas ia
Ġsa Ã§
Ġli der
Ġli bation
ct s
ct ed
Ġr us
Ġr ural
Ġr itim
Ġr aise
iy di
Ġse ver
Ġst ruct
Ä±l Ä±
Ä±l masÄ±
Ä±l masÄ±nÄ±
Ġar ist
Ġar asÄ±ndaki
Ġyap abilir
ib e
ib ut
ch ris
Ġwith in
Ġgo es
ul ation
Ġver ici
ca ÄŁ
ca de
Ġat m
Ġte am
Ġte ach
Ġte ÅŁekkÃ¼rler
Ġte hlike
Ġge ce
Ġge liyor
so me
Ä±ÄŁ Ä±n
ma il
Ġor der
Ä±yor du
Ä±yor dum
od a
od ern
du ct
Ġsh a
Ġpro test
Ġme an
Ġme ans
Ġet tiÄŁ
Ġet tik
use s
Ġch o
Ġch ris
ti f
ti v
Ġwor th
Ġwor ds
Ġben z
art Ä±ÅŁ
Ġson unda
Ġinsan lara
Ġla zÄ±m
end ing
ĠgÃ¶r sel
Ġnot ice
Ġtr ied
Ġtr ouble
Ġex ist
if ul
Ġmo ving
ci h
ci ous
iler den
Ġher hangi
Ġout come
Ġle ss
Ġcon tr
Ġcon trol
Ä±s Ä±nÄ±
Ġsu per
Ġsu ffer
Ġkar a
Ġkar ak
Ġsome one
Ġsome times
be st
be de
Ġad land
Ġad van
Ġad ult
Ġad dict
Ġye mek
Ġknow n
ther land
Ġsor um
und reds
Ġsp ent
Ġsp read
Ġvar i
ark en
ate ly
Ġtak en
Ġtak ing
Ġget s
dÄ± lar
lay abiliriz
Ġay Ä±r
ich ard
mas Ä±ndan
uy u
ĠdÃ¼ÅŁÃ¼n Ã¼r
oc rac
ĠiÅŁ lem
Ġcomp lic
Ġsay esinde
Ġed in
Ġed ers
Ġed ici
Ġus b
Ġour selves
ĠÃ§alÄ±ÅŁ an
ĠÃ§alÄ±ÅŁ mak
ĠÃ§alÄ±ÅŁ malar
ĠyaÅŁ Ä±yor
ĠyaÅŁ lÄ±
ĠyaÅŁ adÄ±k
Ġzaman Ä±
ru f
Ġkon us
Ġpo ssible
Ġev ren
ag n
Ġun ut
Ġun iver
Ġpar ad
Ġpar ents
Ġlook s
Ġ2 1
Ġbak ar
Ġbak ter
Ġsiz lere
ĠdeÄŁil di
lu ence
Ġca se
ĠÃ§Ä±k Ä±ÅŁ
ron ic
ron om
Ġbo x
Ġbo th
Ġbo ard
Ġdi jital
ĠgÃ¼n eÅŁ
ĠgÃ¼n Ã¼mÃ¼z
ĠÃ¼z ere
Ġsah ne
Ġtar z
Ġwork ed
ĠgerÃ§ek leÅŁ
Ġgen Ã§
Ġgen iÅŁ
ĠÃ¶nce ki
vi ously
yan us
ort un
Ġgot ten
Ã¶r neÄŁin
ĠdoÄŁ um
Ġexp er
Ġexp ensive
Ġola caÄŁ
acaÄŁ Ä±nÄ±
Ġres p
os ing
Ġcar bon
app ed
diÄŁ ini
diÄŁ imiz
ood y
ud unuz
edi a
ici ans
Ġilg ilen
Ġbas ically
Ġkend imizi
ĠoluÅŁ an
Ġevery body
ks ik
ks iyon
Ġdif fic
Ġpart s
Ġzor und
Ġduy gus
raf ik
lÃ¼ ÄŁÃ¼
Ä±ld Ä±
Ä±ld Ä±m
ĠsÃ¶yle ye
ĠsÃ¶yle diÄŁi
Ġyaz d
Ġke ep
Ġem b
malar Ä±nÄ±
tu ÄŁ
Ġhapp y
Ġhapp iness
alÄ± yÄ±z
Ġtasar ruf
Ġsistem i
ĠÃ¼l k
Ġsan ki
Ġel se
Ġhep sini
Ġdiffer ence
Ġken ya
abil ity
ĠÃ¶l Ã§
Ġ15 0
Ġ15 5
Ġ19 6
Ġ19 9
Ġtab le
Ġtab ii
Ġgir iÅŁ
Ġmet ronome
Ġmet hod
ĠgeliÅŁ mekte
son ra
uÄŁ u
uÄŁ unu
Ġ3 0
Ġter cih
ary land
Ġfin ally
tiÄŁ imiz
Ġetk ili
Ġetk isini
ĠgÃ¶rÃ¼n tÃ¼
Ġspe cial
ĠdÃ¶n Ã¼ÅŁ
Ġwar m
Ġhem en
Ġfa il
Ġfa iled
Ġbel li
Ġbey in
Ġask ing
ĠoluÅŁtur mak
Ġbl ood
Ġsim ilar
Ġcr ime
Ġph ys
larÄ±mÄ±z Ä±
Ġdurum da
ĠsavaÅŁ Ä±
Ġmer ak
Ġmat ter
Ġmat eri
ĠkÄ±s a
Ġpr ize
Ġrep ort
Ġarab a
ĠÃ¶ÄŁren e
ĠkiÅŁ inin
Ġcreat ed
ĠbazÄ± larÄ±
muÅŁ tu
ĠÃ¼ ye
Ä±y Ä±
Ġdr ive
Ġdr ink
Ġdedi ÄŁ
Ġgi ant
Ġinv ent
ĠÃ§ocuk lar
ĠgÃ¶z Ã¼k
Ġetti ÄŁi
Ġtrans form
Ġsort s
Ġtut ar
Ġsin ir
Ġkut up
ĠÅŁirket ler
Ġreal ized
Ġsebe bi
Ġbr ing
Ġpop corn
Ġediyor um
las ses
ĠbaÅŁlad Ä±m
Ġlear ning
ĠparÃ§ asÄ±
Ġdevelop ing
Ġtyp e
Ġgay et
ĠÃ§Ã¶z Ã¼m
ĠvÃ¼c udunuz
Ġark adaÅŁ
Ġeng el
ĠgÃ¶rÃ¼yor sunuz
Ġmove ment
ĠdÃ¼ÅŁÃ¼nÃ¼yor uz
Ġcommun ity
Ġihtiyac Ä±mÄ±z
Ġturn s
Ġber aber
Ġsal dÄ±r
Ġdir ect
Ġmed ical
Ġkab ul
Ġbuld uk
Ġdeci de
Ġtele fon
Ġboy unca
com p
udi ence
Ġila Ã§
Ã¼ÄŁ Ã¼nÃ¼
Ġdra g
Ġdra w
Ġwil son
Ġyen iden
Ġhop e
Ġmark et
Ġkes in
Ġelim iz
ĠuÄŁ r
Ġprodu ction
Ġcont in
Ġdisease s
ĠyetiÅŁ kin
Ġagain st
Ġhissediyor sunuz
Ġtun ed
Ġbott om
Ã¼le bilir
ĠdÃ¶ nd
Ġwom an
Ġmik t
Ġpet rol
Ġpur pose
Ġfl orida
Ġindu st
Ġingil iz
ĠiÃ§er isinde
Ġhaf ta
Ġengine er
Ġchang ed
ĠgÃ¶rd Ã¼m
Ġsupp ort
Ġcomput er
Ġilet iÅŁim
Ġafric an
Ġpartic ular
Ġkayn ak
ĠdÄ±ÅŁarÄ± da
Ġmutl uluk
Ġ5 0
Ġtem iz
Ġill ust
Ġkil ome
Ġpa ul
Ġinf luence
Ġyoun g
Ġstud y
Ġenerj i
Ġproject s
Ġappro ach
ĠhatÄ±r lat
ĠhastalÄ±k lar
Ġpasif ik
Ġscient ists
tam am
Ġut an
Ġdan ny
Ġhy per
ĠkÃ¼l tÃ¼re
Ġclic ks
Ġfron t
Ġbeaut iful
Ġdolay Ä±
Ġgovern ment
Ġunivers ity
Ġelektrik li
Ġnetw ork
fin ally
post a
Ġast ronom
Ġbron x
Ġdig ital
Ġwron g
Ġyab an
ĠkÄ±rs al
Ġfib er
Ġell roy
Ġeinste in
Ġyoutu be
Ġvilla ge
ĠÅŁans lÄ±
Ġnotice d
Ġcomplic ated
Ġuniver se
Ġdiffic ult
1 9
a vi
a med
b t
b an
b et
b ild
b Ã¼tÃ¼n
b aret
c er
c is
c ur
c ut
c ul
c ard
c Ã¼l
c rÃ¼
c ape
d Ã¼n
d own
d Ã¶rt
e ded
f en
f are
g Ä±
g Ã¼
g Ã¶
g ot
h i
h ÅŁ
h ing
h am
h ic
h ur
h ere
h ap
h ab
i j
i ol
j ig
k an
k ol
k lam
l it
l Ä±ÄŁ
l Ä±ÄŁÄ±
l Ä±yoruz
m o
m er
m al
m ing
m ur
m ik
n ed
n am
n ic
n eye
n ov
o ved
o int
o ssible
p ar
p en
p lay
r ent
r ist
r ans
s c
s al
s ing
s Ä±n
s ine
s Ã¼re
s eniz
s olut
s aydÄ±
t ar
t is
t Ã¼r
t ronik
u h
u ine
u ca
u ation
u du
u ya
u ade
u age
v or
v as
w are
y Ä±
y ine
y Ä±l
y eni
y Ä±ld
z a
Ä± larÄ±
Ġt en
Ġt ic
Ġt es
Ġt ro
Ġt reat
Ġt Ä±p
Ġt iss
Ġt artÄ±ÅŁ
in ce
Ġa ur
Ġa ge
Ġa pt
Ġa udience
Ġb in
Ġb on
Ġb re
Ġb es
Ġb ol
Ġb eri
Ġb ag
Ġb row
Ġb ased
Ġb acter
er ci
er Ã§e
ar lÄ±
ar ras
Ġth row
an i
an Ä±z
an ne
an Ä±zÄ±
Ġs n
Ġs ar
Ġs ak
Ġs ing
Ġs ad
Ġs um
Ġs em
Ġs ki
Ġs we
Ġs eni
Ġs kin
Ġs Ä±nÄ±r
Ġo ce
Ġo pp
Ġo pen
en ges
Ġi di
Ġi baret
Ã¼ me
Ã¼ ph
Ã¼ llÃ¼
Ġd al
Ġd on
Ġd il
Ġd iz
Ġd ek
Ġd Ã¶rt
Ġd izi
ÅŁ gul
Ġw r
Ġw ak
Ġw ow
Ġw ave
Ġy or
Ġy Ã¼r
Ġy old
at if
at ive
at ta
at Ä±cÄ±
or at
or th
or ge
Ġg and
Ġg az
Ġg lo
Ġg iden
Ġg ave
Ġh ir
Ġh ou
Ġh ed
Ġh am
Ġh es
Ġh Ã¼k
Ġh ill
Ġh orm
Ġh Ã¢
Ġh ands
Ġh aber
Ġthe ory
al a
al so
al ama
Ġm ek
Ġm ic
Ġm ul
Ġm aÄŁ
Ġm ig
Ġm uy
Ġm orn
Ġm edia
Ġm aryland
Ġk m
Ġk re
Ġk ol
Ġk ul
Ġk uÅŁ
Ġk Ã¼re
Ġk abile
Ġk omik
Ġk irs
Ã§ i
Ã§ uk
le ye
on ents
on ksiyon
ve yn
nd a
re w
Ġc in
Ġc am
Ġc ad
Ġc ul
Ġc lim
Ġc ep
Ġc ih
Ġc iv
Ġc lass
il lar
il ip
Ġp ak
Ġp az
Ġp iy
Ġp ull
Ġp ren
Ġp ack
Ġp ath
Ġp eki
Ġp ati
Ġp ower
Ġf i
Ġf re
Ġf our
Ġf ather
Ġf ool
Ġf Ä±rs
Ġf onksiyon
lar sanÄ±z
lar Ä±mÄ±
lar daki
st ic
Ġe ve
Ġe st
Ġe ss
Ġe be
Ġe ight
Ġe ast
Ġe yal
Ġe mail
Ġe ksik
me miÅŁ
Ġin k
Ġin tro
Ġin fect
ak am
ak lÄ±
ay Ä±n
ay Ä±z
ay nÄ±
ay rÄ±ca
Ġn on
Ġn ad
Ġn ey
Ġn iyet
Ġn edir
Ġto y
un ma
un cu
Ġbir th
Ġbir ey
Ġbir ini
Ġbir isi
Ä±n ca
Ä±n tÄ±
li z
as h
as i
as ure
as sion
Ġof fer
is yen
im diler
ler im
ce ive
iz on
iz yon
Ġbu g
Ġbu s
Ġbu ff
ĠÃ§ at
ĠÃ§ Ä±l
ĠÃ§ oc
ĠÃ§ erÃ§e
ad u
ad Ä±
ad ing
ad Ä±r
ad Ä±ÄŁÄ±
ad ition
ek sel
et h
ic on
yor um
Ġve hic
ro b
ro t
Ġv ay
Ġv ad
Ġv ent
Ġv ie
Ġv ision
Ġv iol
Ġwe alth
Ġwe eks
Ġwe igh
Ġde c
Ġde g
Ġde ad
Ġde vices
Ġde hÅŁ
Ã¼n Ã¼n
Ġon ce
Ġon larla
Ġon line
ut larÄ±
ut ta
Ġis su
Ġis eniz
Ġu g
ik i
ik rar
ik Ã§e
ow ed
ok e
ac Ä±
ac Ä±k
ac ity
di d
di es
um un
ion al
ent al
ent ine
Ġl u
Ġl ou
Ġl ow
Ġl ine
Ġl ang
Ġl uc
Ä±r ken
Ä±r sÄ±nÄ±z
Ġre f
Ġre l
Ġre cent
Ġre aders
Ġre klam
Ġan al
Ġan sw
Ä±k larÄ±
Ġol ma
ab ly
Ġso y
ĠÃ¶ lÃ¼
em le
Ġha ving
Ä±nd aydÄ±
Ġal Ä±ÅŁ
Ġal mak
Ġal one
Ġal man
Ġal Ä±p
Ġal mam
Ġfor d
Ġfor e
Ġfor ce
id ge
Ġas so
ol ved
Ġsa f
op p
op er
Ġli ving
ter m
ter n
Ġr aÄŁ
Ġr ise
Ġr are
Ġr ady
Ġr akam
Ġse x
Ġst e
Ġst r
Ġst ate
Ġst ars
Ġst uff
Ġst ability
Ġne ler
Ġne eded
Ġare a
Ä±l Ä±r
Ġar ap
Ġar ch
Ġar gu
Ġwas hing
Ġyap an
Ġyap am
Ġyap abile
Ġyap manÄ±n
Ġyap abiliriz
Ġyap Ä±yorlar
Ġyap malarÄ±
ib iy
Ġda v
iÅŁ le
ch e
ch er
ch ar
ra st
ra id
Ġen ough
Ġab solut
Ġz ih
iyor du
Ġcan lÄ±
Ġver iyor
Ġver dim
Ġver ileri
Ġte p
Ġte or
Ġte st
Ġte crÃ¼
Ġge ze
Ä±ÄŁ Ä±mda
alar dan
te mel
Ġor man
ist e
ist ik
larÄ± yla
Ä±yor sun
ĠbaÅŁ ta
ĠbaÅŁ Ä±na
ĠbaÅŁ lÄ±k
du lar
Ġsh ar
ĠÅŁey in
ĠÅŁey lerin
Ġme mel
Ġme ÅŁgul
Ġet ik
Ġet tiler
Ġch em
Ġch art
Ġch all
Ġch oice
ti ÄŁi
Ġall owed
Ġwor d
Ġson g
Ġson r
bu ndan
Ġpe ÅŁ
Ġpe ace
ard Ä±k
Ġj ud
Ġbil inc
ĠgÃ¶r mek
ĠgÃ¶r mez
ĠolduÄŁ una
ĠolduÄŁ undan
ĠolduÄŁ udur
Ġwhat ever
Ġtr ack
Ġtr ue
Ġtr adition
larÄ±n Ä±n
Ġex ce
Ġex act
Ġex erci
Ġmo vi
ci es
ust ain
ans al
ans Ä±z
ĠdÃ¼ÅŁ Ã¼k
may be
may acak
Ã¼y dÃ¼
Ġle d
Ġle ave
Ġcon text
Ġsu therland
imiz e
uk lu
Ġad d
Ġad Ä±na
Ġye me
Ġknow s
Ġsp ir
Ġsp ot
Ġup on
Ġist ers
Ġist iyorlar
Ġist edik
Ġist ikrar
ate g
Ġtak Ä±m
lan an
lay abilir
Ġay r
Ġay ak
Ġay da
uy du
ĠdÃ¼ÅŁÃ¼n ce
ĠdÃ¼ÅŁÃ¼n Ã¼n
ĠdÃ¼ÅŁÃ¼n men
ĠdÃ¼ÅŁÃ¼n erek
ĠiÅŁ ler
Ã¼yor um
Ġno stal
Ġaf raid
ars Ä±z
Ġcomp onents
Ġcomp assion
bir Ã§ok
Ġthing ama
Ä±nÄ±z a
Ġapp le
Ġapp ly
Ġthem selves
ĠÃ§alÄ±ÅŁ Ä±yoruz
ĠÃ§alÄ±ÅŁ arak
mes ine
meye cek
Ġzaman a
Ġzaman larda
Ġkon trol
Ġpo or
Ġpo et
Ġpo em
Ġev ent
Ġev olution
Ġmil itary
Ġhal ine
ack s
ag ing
Ġun ited
Ġpar anÄ±n
Ġlook ed
Ġbak Ä±n
Ġbak Ä±ÅŁ
Ġbak tÄ±ÄŁ
Ġden k
Ġden edim
Ġpre fer
Ġro l
Ġro le
Ġhay Ä±r
Ġkull andÄ±ÄŁÄ±nÄ±z
Ġca ve
Ġca used
ĠÃ§Ä±k an
Ġbo ÅŁ
Ġdi agn
Ġper fect
Ġper hap
Ġper ceive
af az
af ter
tir mek
Ġqu ick
Ġsah te
Ġyour self
Ġyer lerde
Ġyar Ä±ÅŁ
Ġyar arÄ±
ĠgÃ¶re biliriz
tur al
ĠÅŁek li
Ġact iv
Ġyok tur
Ġyok sa
Ġgen uine
Ġprob ably
vi ew
ort s
Ġkur al
Ġkur um
Ġkur ul
Ġkur tu
Ã¶r Ã¼n
Ġuse s
Ġuse less
bil mek
he ad
Ġok yanus
ces i
Ġbul mak
acaÄŁ Ä±nÄ±z
Ġres m
Ġres ult
Ġolm uÅŁ
ken in
os p
os is
Ġuz ay
Ġuz man
diÄŁ inde
Ġnew sp
tÄ±ÄŁ Ä±m
ili ar
Ġgerek tiÄŁini
ĠbaÄŁ lan
ĠbaÄŁ lay
Ġwant ed
Ġkal d
Ġkal an
Ġkal dÄ±r
Ġkal dÄ±lar
Ġkend imi
Ġneden le
Ġolduk larÄ±nÄ±
uyor dum
Ġyol unda
Ġzor luyor
Ġac c
Ġac cess
Ġac comp
Ã¼nd en
Ġduy ul
Ġyet ersiz
Ġkay bede
raf i
ĠdeÄŁiÅŁ im
ĠdeÄŁiÅŁ ti
ĠdeÄŁiÅŁ tir
ĠdeÄŁiÅŁ tire
Ġimp ossible
wh en
arÄ± cÄ±
Ġyaz Ä±k
Ġgr aph
Ġgr adu
Ġke li
Ġany more
tu plar
ĠsÃ¼re c
ĠsÃ¼re Ã§
ĠsÃ¼re de
Ġik lim
Ġik isini
Ġyak Ä±n
Ġyak alay
Ġsistem in
ĠÃ¼l kenin
Ġsan Ä±rÄ±m
lic ation
ĠÃ¶ÄŁ ret
Ġhep imizin
lo ok
Ġes p
Ġes as
Ġede bilirsiniz
Ġede mez
Ġede bilen
Ġart an
Ġ19 00
Ġbig ger
Ġgir l
Ġgir meye
Ġgir ls
ĠÃ§oÄŁ unun
ĠgeliÅŁ en
bile cek
bile ceÄŁi
son unda
Ġter im
Ġter ms
Ġtra in
Ġtra vel
Ġbaz en
Ġide as
ÅŁimdi ye
Ġkap alÄ±
ih ayet
ĠbÃ¶ cek
Ġob viously
Ġhum ans
Ġort alama
Ġetk ileÅŁ
ĠgÃ¶rÃ¼n Ã¼yor
ĠgÃ¶rÃ¼n mÃ¼yor
Ġdifferent ly
uc u
Ġbit ki
Ġthrough out
Ġsen se
Ġtopl ant
ĠgÃ¶ster iyor
mam Ä±ÅŁ
Ġbl ind
Ġdis co
Ġcr it
larÄ±mÄ±z Ä±n
ĠÅŁimdi ye
su e
ĠtÃ¼r Ã¼
ĠtÃ¼r lÃ¼
Ġbab a
Ġbab y
ĠyÃ¼k se
Ġmut lu
Ġpr inci
Ġfound ation
Ġrep e
Ġrep ul
Ġhast a
Ġgeldi ÄŁ
ĠÃ¼lke ler
ger y
Ġho ÅŁ
Ġho ld
ĠkÃ¶ y
Ġcreat ures
Ġplan et
Ġgele bilir
ben im
Ä±y la
Ä±y dÄ±
Ġak tiv
Ġima ge
Ġgi ven
Ġgi dip
Ġkor um
Ġcol or
ĠeÅŁ its
ĠeÄŁ itim
Ġinv isible
Ġdem okras
Ġdem ocrac
duÄŁ u
Ġyay Ä±n
Ġfam ous
Ġfam iliar
Ġinc lu
Ġdolar lÄ±k
Ġolur larsa
Ġsebe b
Ġsebe p
ĠyaptÄ±ÄŁ Ä±m
ogr am
Ġoyun cak
Ġrobot s
iv al
ph y
Ä±la bilir
Ä±la cak
ĠsÄ±r asÄ±nda
Ġmom ents
Ġmus ic
Ġpop ulation
Ġediyor lar
Ġediyor sanÄ±z
ayd Ä±nÄ±z
las yon
ĠbaÅŁlad Ä±k
Ġsorun larÄ±
Ġhigh er
ĠÃ¼zerinde ki
ĠÃ¶zel lik
Ġdevelop ment
Ġtyp ically
Ġald Ä±
Ġald Ä±k
Ġser ies
ĠyÄ±ld a
ĠyÄ±ld Ä±r
Ġgid er
Ġmiss ion
Ġfact ors
mem iz
ĠÃ§eÅŁit li
ĠvÃ¼c udu
Ġrec ord
Ġru h
ĠaraÅŁtÄ±r ma
Ġeng lish
duk larÄ±
ĠgÃ¶rÃ¼yor uz
ĠdÃ¼ÅŁÃ¼nd Ã¼m
ĠdÃ¼ÅŁÃ¼nd Ã¼ÄŁ
ĠÃ§Ä±kar mak
Ġelek tronik
Ġelect ric
bileceÄŁ imiz
Ġcommun ic
Ġihtiyac Ä±
ward s
ĠÃ¼n lÃ¼
Ġsek s
Ġyere l
ĠgÃ¼Ã§ lÃ¼
Ġgrow ing
Ġmis in
Ġmis iniz
ley in
Ġcap acity
Ġpay laÅŁ
ention al
Ġorgan iz
Ġjob s
Ġcons ider
Ġcons cious
ĠdÃ¼ÅŁÃ¼ne bilirsiniz
Ġeducation al
com ing
ĠÃ¼re t
Ġbar Ä±ÅŁ
Ġileri de
Ġdet ail
Ġdri ving
ĠhÃ¼cre si
Ġmark ets
Ġkim se
Ġfak ir
Ġfak tÃ¶r
Ġfur nit
Ġear li
Ġear th
Ġindi a
Ġindi vid
Ġdef a
Ġstop p
Ġherkes in
ĠsuÃ§ lu
Ġbulun an
ĠbaÄŁÄ±m lÄ±
Ġimpro ved
ĠtasarÄ±m cÄ±
Ġgelecek teki
Ġcolle ct
Ġunderstand ing
ĠsÃ¶y len
ĠsÃ¶y lÃ¼yor
Ġnormal de
inc isi
Ġwom en
ĠyaÄŁ mur
Ġmik ro
Ġmiy iz
Ġmach ine
Ġfun ction
Ġingil tere
Ġuc uz
Ġrem oved
Ġhaf if
Ġlab orat
Ġpres ident
Ġtarih i
Ġkurt ar
Ġkurt ul
Ġbulund u
Ġafric ans
Ġgelen eksel
Ġkayb et
Ġkayn aklan
Ġincre di
Ġincre asing
ĠÃ¼r Ã¼n
Ġsat Ä±n
Ġsou th
Ġsab ah
Ġic at
Ġwa it
Ġgal ak
Ġgal ax
Ġhor izon
Ġkav ram
Ġpain ting
Ġfra me
ĠÃ§iz g
Ġsol utions
Ġatt ack
ĠgÃ¶rdÃ¼ÄŁ Ã¼mÃ¼z
ĠistediÄŁ im
Ġgetire cek
Ġolmad Ä±ÄŁÄ±nÄ±
ĠkeÅŁ fet
ĠkÄ±sm Ä±nÄ±
Ġodaklan mak
Ġstandard s
doÄŁ u
rit ing
ĠbiÃ§ im
Ġsit uation
Ġwind ows
alet to
Ġmes aj
Ġmey dan
ĠmÃ¼z ik
Ġmant arÄ±
Ġpie ce
Ġelem ents
Ġeff ect
Ġvere cek
Ġdeep ly
Ġuf ak
Ġneur ons
Ġhede f
geÃ§ en
Ġprogr am
luÄŁ u
Ġyoks ull
Ġimk ansÄ±z
Ġyanl Ä±ÅŁ
ĠdeÄŁiÅŁik lik
Ġphot ograph
ĠÃ¼nivers it
Ġtelev ision
Ġfocus ing
Ġperiod s
Ġfantast ic
fil m
hay at
lend iler
indi stan
Ġali ve
ĠsÄ± cak
Ġid di
Ġgent lem
Ġgru p
ĠmÄ±s Ä±r
Ġmention ed
Ġklin ik
Ġcev ap
Ġple ase
Ġflo or
Ġeth nic
Ġine qu
Ġinse cts
Ġnation al
unluk la
ĠÃ§ar p
ĠÃ§ift Ã§
Ġvis ual
Ġcontr ibut
Ġadland Ä±rd
Ġvari ety
Ġbakar sanÄ±z
Ġsahne de
Ġduygus al
Ġemb arras
ĠÃ¶lÃ§ Ã¼
Ġdrag on
Ġkesin likle
Ġelimiz de
ĠuÄŁr aÅŁ
Ġillust rate
Ġkilome tre
ĠkÃ¼ltÃ¼re l
Ġyaban cÄ±
dÃ¼n y
Ġtro phy
Ġapt al
Ġbacter ia
Ġopp ortun
Ġglo bal
Ġhou se
Ġmul ti
Ġmorn ing
Ġcul tural
Ġclim ate
Ġcih az
Ġpren s
Ġebe veyn
Ġeyal et
Ġnad ir
imdiler de
ĠÃ§Ä±l gÄ±n
Ġvehic les
Ġvie w
Ġlang uage
Ġasso ci
ĠraÄŁ men
Ġabsolut e
ĠtecrÃ¼ be
Ġchall enges
Ġtradition al
Ġexerci se
Ġmovi e
ĠdÃ¼ÅŁÃ¼nmen izi
Ġthingama jig
Ġperhap s
Ġnewsp aper
Ġdisco ver
Ġprinci ple
ĠeÅŁits iz
Ġconscious ness
Ġfurnit ure
Ġembarras sed
1 2
1 8
2 0
3 0
4 7
5 6
5 00
a i
a o
a ir
a az
a fer
a ugh
a way
a wa
a irs
b l
b s
b at
b it
b ing
b ey
b ab
b ence
b all
b ank
b una
b bi
b asit
b augh
c in
c ar
c ing
c ol
c iler
c ili
c cess
c usu
c ret
c lass
d at
d den
d Ã¼m
d iniz
d Ã¼l
d na
d ream
d oktor
e h
e x
e an
e mek
e bilir
e ars
e gr
e liz
f u
f ar
f ir
f ing
f ik
f ull
f oc
f kat
g a
g n
g ar
g al
g ing
g im
g Ã¼r
g ers
g end
g ust
g ans
g uy
g ri
g ment
g isayar
g gest
h a
h is
h Ä±z
h az
h ud
h orn
h ire
h ost
h av
h iÃ§
h undreds
i as
i ally
i ous
j h
j en
j edi
k y
k or
k il
k ek
k Ä±z
k Ä±r
k iÅŁ
k iler
k ate
k iden
l g
l ak
l op
l us
l vi
l Ã¢
l Ä±ÄŁÄ±nÄ±
l ilik
l ock
m t
m w
m ar
m it
m un
m Ã¼r
m ers
m ada
m inin
m ach
m iyoruz
m other
m Ä±zÄ±
m Ä±yorlar
m odern
m alÄ±yÄ±z
n un
n ut
n ot
n em
n el
n ine
n oc
n ight
n ize
n eyi
n Ã¼llÃ¼
o x
o lar
o la
o th
o id
o lic
p m
p r
p or
p am
p ly
p end
p lant
p icture
p tive
p ower
p rote
r or
r ak
r iz
r and
r Ã¼y
r ight
r ound
r ili
r ations
r imin
r ahi
r ichard
s m
s Ä±
s er
s en
s il
s ah
s Ä±nÄ±
s ite
s ize
s ses
s bi
s ition
s enin
s Ã¼nÃ¼z
t ent
t ab
t od
t ayÄ±m
t emle
u g
u de
u ld
u es
u ght
u pp
u jan
u fu
v al
v ik
v ent
v aÅŁ
v ation
v let
v olution
w ater
w anda
w atch
x ic
y u
y in
y er
y se
y iz
y ed
y ere
y ap
y aÅŁ
y pt
y alarÄ±
y dik
y iÅŁle
z ar
z un
z bo
z biy
z aman
z lendiler
z ias
Ã ®
Ã Ń
Ġ $
Ġ ur
Ġ âĢ
Ġ Ã¼y
Ġ Ä±s
Ġ rom
Ä± f
Ä± ll
Ä± da
Ä± ya
Ġt l
Ġt se
Ġt Ä±k
Ġt iy
Ġt iÅŁ
Ġt ans
Ġt ag
Ġt our
Ġt ud
Ġt una
Ġt av
Ġt ony
Ġt Ã¼p
in s
in ch
in san
in to
in ition
in amik
Ġa h
Ġa it
Ġa ut
Ġa kÄ±ÅŁ
Ġa ks
Ġa let
Ġa ids
Ġa det
Ġa jan
Ġa labil
Ġa cade
Ġb at
Ġb ed
Ġb art
Ġb one
Ġb oÄŁ
Ġb lu
Ġb ast
Ġb ase
Ġb ought
Ġb lo
Ġb omb
Ġb mw
er o
er y
er ve
er ing
er li
er ler
er iz
er ose
er ous
er imizi
er met
ar en
ar ly
ar larÄ±
ar ies
ar arlÄ±
Ġth om
an se
an Ä±m
an arak
an esi
an ie
Ġs Ã¼
Ġs ir
Ġs le
Ġs et
Ġs and
Ġs ap
Ġs ok
Ġs iy
Ġs ard
Ġs end
Ġs ars
Ġs ous
Ġs ana
Ġs ign
Ġs Ã¼t
Ġs ens
Ġs akat
Ġs ick
Ġs erg
Ġs emin
Ġs unuyor
Ġs ustain
Ġs acks
Ġo ÄŁ
Ġo to
Ġo per
Ġo sc
en e
en se
en es
en di
en gin
Ġi r
Ġi gn
Ã¼ f
Ã¼ ler
Ã¼ fe
Ã¼ met
Ġd im
Ġd ile
Ġd Ã¼r
Ġd ans
Ġd eri
Ġd ang
Ġd iss
Ġd ance
Ġd yn
Ġd uvar
ÅŁ ir
ÅŁ Ã¶yle
ÅŁ eyi
ÅŁ eh
Ġw it
Ġw if
Ġw all
Ġw ood
Ġw als
Ġw atch
Ġw yn
Ġw ires
Ġw ives
Ġw rote
Ġw riting
Ġy as
Ġy ah
Ġy Ä±k
Ġy em
Ġy ada
Ġy og
Ġy oÄŁ
Ġy ank
Ġy iye
Ġy iyorlardÄ±
Ġy ork
Ġy andan
at in
at al
at ro
at and
at Ã¼r
at ers
at larÄ±nÄ±
at su
at ural
ir ler
ir ib
ir lere
ir anesi
or re
or it
or unu
or ant
or der
or ian
or fir
Ġg ro
Ġg ross
Ġg reen
Ġg ame
Ġg Ã¼cÃ¼
Ġg Ä±d
Ġg rew
Ġg host
Ġg pr
Ġh on
Ġh it
Ġh un
Ġh iz
Ġh et
Ġh ap
Ġh uz
Ġh us
Ġh one
Ġh ack
Ġh ath
Ġh Ä±rs
Ġh angi
Ġh ekim
Ġh undreds
Ġh illar
Ġh osp
Ġh indistan
Ġthe me
al d
al ed
al and
al ye
al ore
al tÄ±
al ici
Ġm g
Ġm s
Ġm ou
Ġm it
Ġm ine
Ġm alar
Ġm ars
Ġm oun
Ġm ahk
Ġm alth
Ġm ahat
Ġm ax
Ġm odern
Ġm ao
Ġk n
Ġk as
Ġk um
Ġk Ä±k
Ġk em
Ġk el
Ġk uz
Ġk ore
Ġk uk
Ġk ag
Ġk ast
Ġk alk
Ġk ili
Ġk Ä±sÄ±
Ġk ick
Ġk amp
Ġk aÄŁÄ±
Ġk ula
Ġk riz
Ġk irib
Ã§ Ä±
Ã§ re
Ã§ Ã¼k
Ã§ iler
Ã§ oÄŁ
le x
le meye
le Ã§ek
le mez
le zlendiler
on lar
on ge
ÄŁ im
ÄŁ uk
nd en
nd ere
re m
re st
re as
re et
ou bt
Ġc ild
Ġc ens
Ġc ents
Ġc lo
Ġc ult
Ġc ities
Ġc lasses
il le
il di
il iyor
il leri
il meye
il age
il ated
Ġp an
Ġp is
Ġp ik
Ġp ah
Ġp ot
Ġp ist
Ġp ers
Ġp ark
Ġp ure
Ġp ence
Ġp age
Ġp ors
Ġp orn
Ġp ater
Ġp ix
Ġp ub
Ġp upp
Ġp iranesi
Ġp orfir
Ġf ir
Ġf ed
Ġf ly
Ġf Ä±r
Ġf ine
Ġf und
Ġf ilde
Ġf ought
Ġf lat
Ġf ran
Ġf ie
Ġf ayd
Ġf ract
Ġf light
Ġf rans
Ġf ufu
Ġf atal
lar ken
st r
st ed
st orm
st ival
Ġe y
Ġe at
Ġe ur
Ġe ith
Ġe yle
Ġe ating
Ġe bo
Ġe hud
me me
me den
me lerini
me sela
Ġin Ã§
Ġin de
Ġin ce
Ġin te
Ġin dir
Ġin tim
Ġin ner
it a
it ing
it ut
it ig
it ect
it ual
it ney
it utions
it ude
ay i
ay ing
Ġn ur
Ġn ik
Ġn az
Ġn el
Ġn eye
Ġn orth
Ġn ihayet
Ġn atural
Ġto wards
ing ale
ing ham
un t
un Ã§
un te
un unuzu
se ven
se cond
se cret
Ġbir er
Ġbir ik
Ġbir den
Ġbir Ã§oÄŁ
Ä±n c
Ä±n Ä±m
la st
la may
la cak
la masÄ±
de ÅŁ
de la
de vlet
li g
li s
li am
li es
li ct
li pt
li sede
as Ä±ndan
as lÄ±nda
Ġand an
is imi
is na
is ov
im a
im li
im ent
im ag
ce ptive
iz ing
iz ca
ed ing
ed ly
ed eriz
Ġbu laÅŁ
Ġbu ndan
Ġbu labil
Ġbu Ã§uk
ld a
ld er
ld en
ld oz
ld far
am ayÄ±
ĠÃ§ in
ĠÃ§ ize
ĠÃ§ ete
ad i
ad Ä±m
ad amÄ±
ek t
et t
et ik
et iciler
Ġve st
Ġve get
es ome
es inden
es kiden
ur a
ur d
ur ch
ur vet
ro p
ro ad
ro ll
Ġv a
Ġv us
Ġv ade
Ġv amp
Ġv isible
Ġv ote
Ġv atand
Ġwe ight
Ġde mek
Ġde od
Ġde lik
Ġde vi
Ġde ste
Ġde fect
Ġde yiÅŁle
th ers
th ose
th ough
Ġbe ar
Ġbe ye
Ġbe be
Ġbe yon
Ġbe ste
Ġbe gan
Ġbe gun
Ġbe coming
Ġbe anie
Ġwh itney
Ġon ay
Ġon es
ut ting
and i
and Ä±
and er
and Ä±ÄŁÄ±
and mother
Ġis vi
Ġis land
Ġit al
Ġit ib
Ġit ici
Ġu nd
ap her
ap nel
ik on
ll ow
ll ileri
ĠÅŁ ur
ĠÅŁ ah
ĠÅŁ aÅŁ
ĠÅŁ id
ĠÅŁ iÅŁ
ĠÅŁ ark
ĠÅŁ unun
ĠÅŁ Ã¼p
ĠÅŁ imdilerde
ok rat
ac ters
ac tive
ah ani
di a
um stan
ent ly
ent ation
ent ary
ent ric
ent ially
ey im
Ġl t
Ġl in
Ġl en
Ġl ands
Ġl ines
Ġl ord
Ġl omb
Ġl atin
Ġl onge
Ġl itig
Ä±r Ä±
Ä±r Ä±yorum
Ġdo z
Ġdo lara
Ġdo ors
Ġdo larla
Ġdo pam
ot a
ot ion
ot land
Ġre d
Ġre ad
Ġre ct
Ġre ver
Ġre ag
Ġre act
Ġre form
Ġre lie
Ġre zer
Ġre mem
Ġre volution
Ġan a
Ġan at
Ġan ti
Ġan cak
Ġan lad
Ġan tim
Ġan lamak
Ġan gri
Ġan ita
Ä±k lÄ±
Ä±ÅŁ Ä±
Ġol un
Ġol maya
Ġol sa
Ġol up
Ġol manÄ±n
Ġol sun
Ġol saydÄ±
ab d
ab Ä±
ab ag
ab eth
om ing
om ach
Ġso c
Ġso lar
Ġso ap
Ġso ft
Ġso ph
ĠÃ¶ dÃ¼l
em iyoruz
ĠiÃ§ i
ĠiÃ§ gÃ¼
Ġha irst
Ä±nd Ä±
Ġal ak
Ġal ay
Ġal Ä±yor
Ġal ong
Ġal ber
Ġal ty
Ġal alÄ±m
Ġal hur
Ġal tern
Ġal though
ĠgÃ¶ nder
ĠgÃ¶ nÃ¼llÃ¼
ĠgÃ¶ ndere
Ġfor ces
Ġfor get
Ġfor got
id ing
az y
Ġas p
Ġas il
Ġas Ä±l
Ġas ans
Ġas per
Ġas best
ol oj
Ġsa us
Ġsa fi
op h
op ean
Ġli f
Ġli ste
el s
el lerinde
ter lerin
Ġr is
Ġr ap
Ġr ate
Ġr ain
Ġr na
Ġr ush
Ġr aman
Ġr uses
Ġr ichard
Ġr wanda
Ġr andi
iy el
iy aret
Ġse a
Ġse se
Ġse qu
Ġse ven
Ġse ctors
Ġse cur
ver t
ver ty
Ġst ep
Ġst uc
Ġst up
Ġst udi
Ġst ories
Ġst asi
Ġst reet
Ġst omach
Ġne h
Ġne vi
Ġne cess
Ġare as
Ġold um
Ä±l ma
Ä±l Ä±ÄŁÄ±
Ä±l Ä±p
Ä±l gan
Ġar dÄ±
Ġar ama
Ġar aya
Ġar tif
ini an
ini yorum
Ġyap Ä±
Ġyap ma
Ġyap ti
Ġyap acak
Ġyap tÄ±m
Ġyap Ä±yoruz
Ġyap alÄ±m
Ġyap Ä±yorum
Ġyap Ä±lan
Ġyap mac
Ġyap tÄ±lar
Ġyap abilecek
Ġyap arken
ib iz
Ġoldu lar
Ġda f
Ġda vet
Ġda vid
Ġda ima
iÅŁ sel
ch ang
ch ran
ch sur
ra int
Ġen c
Ġen f
Ġen ge
Ġen orm
Ġen dÃ¼
Ġen for
Ġab d
Ġab u
Ġab use
Ġab ach
Ġab oody
Ġz afer
Ġz ero
Ġz ararlÄ±
Ġz engin
Ġz iyaret
Ġgo al
Ġgo ldfar
ul us
ul tu
ul maz
Ġ1 2
Ġ1 4
Ġcan aletto
Ġver mek
Ġver iyi
Ġver ilerin
Ġver dik
Ġver diÄŁim
Ġver uca
Ġver bs
Ġat e
Ġat tr
Ġat lant
Ġte pe
Ġge z
Ġge orge
Ä±ÄŁ Ä±nda
Ä±ÄŁ Ä±nÄ±n
alar a
alar la
alar Ä±nÄ±n
alar daki
ma de
te ÅŁekkÃ¼r
Ġhe ad
Ġhe el
Ġor an
Ġor aya
Ġor anÄ±
ist in
ist er
ist an
larÄ± yÄ±z
ĠbaÅŁ lar
ĠbaÅŁ la
ĠbaÅŁ Ä±nda
ĠbaÅŁ lay
ĠbaÅŁ lat
ĠbaÅŁ Ä±ma
ĠbaÅŁ lÄ±yoruz
ĠbaÅŁ ardÄ±k
od aklÄ±
od inamik
Ã¼m se
Ã¼m cek
Ã¼m enin
Ã¼r Ã¼l
Ã¼r lÃ¼
ation sh
du y
Ġsh o
Ġsh el
Ġsh af
Ġsh are
Ġsh own
Ġpro m
Ġpro vid
Ġpro mis
ĠÅŁey den
ĠÅŁey dir
Ġme ant
Ġme asure
Ġme zun
Ġme lezlendiler
Ġet tim
Ġet nik
Ġch e
Ġch at
Ġch lam
Ġch lad
Ġch ev
Ġch ina
Ġch rist
Ġch airs
Ġch urch
uz z
uz un
iniz e
iniz in
Ġall ows
Ġben den
Ġben ef
Ġson a
Ġson suz
bu st
aÄŁ Ä±nÄ±
ant ly
us ur
ard an
ard Ä±m
Ġinsan Ä±n
Ġlo st
Ġlo ss
Ġlo ved
Ġj our
Ġj ail
Ġj ump
Ġj oke
Ġj urvet
Ġj ahani
Ġbil me
Ġbil ly
Ġbil iyorum
Ġbil dir
Ġbil diÄŁi
Ġbil miyor
Ġbil iÅŁsel
Ġla w
Ġla unch
Ġla dy
Ġla mar
Ġger iye
Ġger many
ĠgÃ¶r Ã¼r
ĠgÃ¶r Ã¼l
ĠgÃ¶r Ã¼nd
ĠgÃ¶r Ã¼lebilir
yle s
ĠolduÄŁ unuz
ĠolduÄŁ unuzu
ĠolduÄŁ umu
Ġnot ion
Ġtr u
Ġtr ick
Ġtr uff
Ġtr ibe
Ġtr anse
Ġtr endi
Ġtr Ã¼f
Ġex cept
Ġex tre
if i
if ied
Ġmo ai
ans a
ans on
ans ion
ĠdÃ¼ÅŁ en
Ġher self
Ġher ÅŁey
Ġher oin
ip leri
may acaÄŁÄ±m
uÅŁ tur
bilir im
bilir di
bilir sin
ime t
Ġle ad
Ġle sbi
Ġle zbiy
Ġcon se
Ġcon cept
Ġcon duct
00 9
Ä±s Ä±nda
Ä±s Ä±nÄ±z
Ä±s Ä±ndan
Ġsu nd
Ġsu san
Ġsu ya
Ġsu ccess
Ġsu dden
Ġsu ggest
Ġkar en
Ġkar bon
og rafi
og nize
qu e
qu ired
ĠÃ¶n Ã¼mÃ¼z
ĠÃ¶n gÃ¶r
sel leÅŁ
Ä±mÄ±z Ä±
Ä±mÄ±z la
Ä±mÄ±z dan
Ġsome wh
be ing
ide ki
Ġad Ä±
Ġad Ä±m
Ġad ap
Ġad lÄ±
Ġye ah
Ġye ster
Ġye llow
Ġknow ing
but u
Ġsor os
Ġsor manÄ±z
Ġsp or
Ġsp ending
Ġsp orts
Ġup set
Ġif ade
Ġist iyoruz
Ġist eme
Ġist isna
Ġist emiyoruz
Ġvar sa
ark a
Ġtak lit
Ġtak Ä±lÄ±p
lay Ä±p
lay abil
lay Ä±c
ĠbÃ¼y Ã¼menin
ure d
Ġay d
Ġay Ä±k
Ġay lÄ±k
Ġay rÄ±
Ġay larÄ±nda
Ġay rÄ±ca
ĠÃ§al d
mas Ä±na
uy ucu
lem i
Ġolan larÄ±
ĠdÃ¼ÅŁÃ¼n mÃ¼yor
ĠdÃ¼ÅŁÃ¼n cesi
oc entric
ĠiÅŁ le
ĠiÅŁ im
Ã¼yor sunuz
Ġtek n
Ġtek nik
Ġno ise
Ġno body
Ġaf fect
Ġbiz de
Ġbiz ler
ill ate
ill endir
Ġcomp et
Ġcomp os
Ġcomp lex
bir incisi
Ġsay Ä±sÄ±nÄ±
Ġed ilir
Ġed erek
Ġed ilen
Ġed ward
Ä±nÄ±z da
Ġus ually
ect ly
ect rum
Ġapp ears
ence s
ĠÃ§alÄ±ÅŁ manÄ±n
ĠÃ§alÄ±ÅŁ mayÄ±
ĠÃ§alÄ±ÅŁ masÄ±nÄ±
ĠÃ§alÄ±ÅŁ Ä±yorum
ĠÃ§alÄ±ÅŁ acaÄŁÄ±m
ĠÃ§alÄ±ÅŁ Ä±yordum
ĠyaÅŁ a
ĠyaÅŁ Ä±ndan
ĠyaÅŁ Ä±na
ĠyaÅŁ ayan
Ġfe ar
Ġfe et
Ġfe stival
Ġzaman lar
Ġzaman Ä±nda
ru ction
ru pa
Ġkon tro
Ġkon usu
Ġpo lar
Ġpo les
Ġpo sition
Ġpo verty
Ġev in
lam anÄ±n
lam amÄ±z
ose s
Ġam ong
Ġam bal
Ġam acÄ±
Ġmil li
kÃ¼ Ã§Ã¼k
ren in
Ġhal k
Ġhal Ä±
Ã§ek ten
ag ain
her es
oÄŁ l
ri al
Ġun cle
Ġun sur
Ġpar ag
Ġpar aya
Ġ2 2
Ġ2 000
Ġ2 009
Ġbak Ä±yoruz
Ġbak arak
Ġden ize
Ġden isov
unuz un
ĠdeÄŁil iz
ĠdeÄŁil dir
ĠdeÄŁil dim
ĠdeÄŁil lerdi
ne lik
ne ÄŁi
ne lim
ĠbÃ¼yÃ¼k lÃ¼ÄŁÃ¼
Ġro ad
Ġro ads
Ġhad i
all ations
ite de
Ġbur den
Ġbur adaki
Ġbur aday
ĠÃ§Ä±k art
ĠÃ§Ä±k acak
Ġkadar Ä±yla
Ã¼Ã§ Ã¼ncÃ¼
Ġdi e
Ġdi am
ĠgÃ¼n Ã¼
ĠgÃ¼n lerde
our ing
Ġper m
Ġper form
Ġper vas
tir il
tir me
Ġsah ibi
Ġsah neye
Ġsah ibiz
Ġnow aday
Ġtar awa
Ġyer inde
Ġyer lere
Ġyer leÅŁ
Ġyar Ä±m
Ġyar Ä±sÄ±
Ġyar ayan
Ġyar Ä±sÄ±nÄ±
Ġyar arsÄ±z
ach ed
ĠgÃ¶re bile
Ġwork ers
ast e
lÄ±k lar
lÄ±k la
lÄ±k lÄ±
ĠyÃ¼z eye
ĠyÃ¼z lerce
ĠyÃ¼z yÄ±l
ĠÅŁek l
ĠÅŁek illendir
Ġkullan an
Ġkullan Ä±yoruz
Ġkullan mayÄ±
Ġkullan Ä±lan
Ġkullan acaÄŁÄ±z
Ġgen e
Ġgen er
Ġgen es
Ġgen eral
Ġman zar
Ġman dela
Ã¶n Ã¼mÃ¼z
ceÄŁ in
ceÄŁ ine
ceÄŁ imi
ceÄŁ inize
ĠÃ¶nce den
Ġhas ar
Ġkur an
Ġkur mak
Ġkur uc
Ġkur ban
tr and
Ġhar ada
Ġtop lam
Ġtop uklu
ĠdoÄŁ al
ĠdoÄŁ muÅŁtu
Ġexp l
Ġexp ansion
bil iyor
bil gisayar
Ġok ina
Ġola bilirsiniz
Ġele vat
Ġele gans
ces ar
Ġbul unuyor
Ġbul ldoz
acaÄŁ Ä±
acaÄŁ Ä±mÄ±
Ġres ist
Ġres our
Ġres imde
Ġres olution
Ġolm ada
ĠgeÃ§ iyor
ĠgeÃ§ miÅŁ
ĠgeÃ§ tim
Ġproblem ler
os u
Ġother wise
ĠyÄ±l Ä±nda
ĠyÄ±l lardÄ±r
Ġcar ry
Ġcar pet
app oint
Ġnew s
Ġnew ton
est inian
miÅŁ ti
Ġsy lvi
Ġfark Ä±
lad Ä±ÄŁÄ±mÄ±z
the ast
abilir dik
ign ments
con trol
land Ä±r
Ã¼t fen
Ġdur an
Ġdur du
Ġdur uyor
Ġmon och
ici ent
Ġgerek li
Ġgerek iyor
Ġgerek tir
Ġgerek eni
Ġilg isi
Ġbas Ä±n
Ġbas sem
ĠbaÄŁ lam
ĠbaÄŁ lant
Ġkend ini
Ġkend isi
Ġkend inizi
ĠsaÄŁ lay
ĠsaÄŁ ladÄ±
ĠsaÄŁ lÄ±yor
Ġevery one
ks hire
pt on
uyor um
uyor du
uyor uz
ens al
ens ion
Ġyol u
Ġyol unu
led im
led ik
Ġpart isyon
Ġzor dur
Ġmost ly
Ġtas k
Ġac cept
Ġac quired
Ġkay ak
Ġkay Ä±p
Ġkay det
Ġinter nal
Ġinter view
Ġinter active
Ġstart ing
Ġinsanlar la
ĠdeÄŁiÅŁ imi
Ġimp lem
wh y
ĠsÃ¶yle di
ĠsÃ¶yle mek
ĠsÃ¶yle dim
ĠsÃ¶yle miyor
Ġyaz ar
Ġyaz Ä±l
Ġyaz Ä±yordu
Ġgr ound
Ġkind ly
Ġem erg
acak lar
dir ectly
malar Ä±nda
malar Ä±mÄ±z
Ġtalk ed
ĠsÃ¼re ce
ĠsÃ¼re kli
Ġik tis
Ġyak Ä±ndan
ĠÃ§ek iÅŁ
ĠÃ§ek mek
ĠÃ§ek ici
ĠÃ§ek ilip
Ġdev re
Ġdev asa
Ġdev rim
Ġtasar larsanÄ±z
Ġsistem lerine
Ġag ents
ĠaÃ§ an
ĠaÃ§ Ä±sÄ±ndan
ste ve
Ġek ran
Ġel on
Ġel it
mez ler
mez sek
Ġlong er
ĠÃ¶z gÃ¼r
ĠÃ¶ÄŁ le
ĠÃ¶ÄŁ re
Ġsav ing
Ġsav age
Ġsav unma
Ġhep sinin
ody nam
Ġbilg iyi
lo ads
Ġtan Ä±ÅŁ
Ġtan Ä±ÅŁtÄ±r
Ġaz alan
Ġes cher
Ġede ceÄŁimiz
iss ion
abil mek
ĠÃ¶l Ã§ek
ĠÃ¶l Ã§e
Ġart Ä±ÅŁ
Ġart Ä±yor
Ġart tÄ±r
Ġ19 47
Ġ19 56
gu lar
Ġ4 2
Ġ4 00
Ġbig gest
Ġsc ore
Ġsc ott
Ġsc ale
Ġih mal
Ġhak lÄ±
Ġmet al
Ġmet ab
ĠÃ§oÄŁ unlukla
ĠÃ§oÄŁ unuzun
ĠgeliÅŁ im
ĠgeliÅŁ tire
ĠgeliÅŁ tirmek
Ġfew er
per star
ran Ä±ÅŁ
uÄŁ un
uÄŁ umuz
Ġ3 6
Ġter m
Ġtra v
Ġtra ged
Ġtra jedi
Ġide al
Ġkap ana
Ġkap asit
Ġfin an
Ġfin ish
Ġfin ansal
Ġvide od
Ġvide oda
Ġdol by
Ġtech ni
tiÄŁ imde
Ġdesign s
Ġdesign er
Ġdesign ing
Ġdesign ers
gr y
gr ound
Ġob sess
ĠdÄ±ÅŁ Ä±na
ĠdÄ±ÅŁ Ä±ndaki
ĠdÄ±ÅŁ arda
Ġuy um
Ġuy gun
ĠÃ¶r Ã¼mcek
ĠÃ¶r neÄŁi
Ġchild hood
ĠgÃ¶rÃ¼n Ã¼r
ĠgÃ¶rÃ¼n mez
ĠÃ¶nem i
Ġspe cies
sh ore
sh horn
Ġtah rip
int on
Ġbit ir
Ġwar ren
Ġkahk aha
Ġfa ir
Ġfa ith
Ġfa ces
Ġfa vor
Ġoff ers
Ġbey ni
Ġbey indeki
Ġask er
Ġask ed
ĠkonuÅŁ mak
Ġtaraf Ä±nda
ĠdÃ¼ny asÄ±na
ĠdÃ¼ny asÄ±ndaki
Ġtopl uluk
ĠoluÅŁtur an
ĠoluÅŁtur ur
ĠoluÅŁtur uyor
ĠgÃ¶ster ilmiÅŁ
for med
mam Ä±z
Ġsim on
Ġsim ply
ĠsÃ¼r en
ĠsÃ¼r Ã¼cÃ¼
Ġdis ney
Ġdis gust
Ġdis appoint
Ġdiye bilirsiniz
Ġcr ying
Ġcr ash
Ġcr azy
Ġinternet e
Ġinternet in
ĠsavaÅŁ maya
Ġtechnolog ies
Ġtechnolog ical
Ġtechnolog ists
Ġteknoloj ik
Ġteknoloj ileri
Ġteknoloj isini
su le
Ġer ke
Ġer iÅŁim
Ġer oin
Ġer kek
Ġbab am
Ġmut ation
Ġmut ilated
ĠkÄ±s Ä±mda
ĠkÄ±s Ä±lma
Ġce b
Ġco de
Ġco chran
Ġcal is
Ġpr int
Ġpr aying
Ġpla ces
Ġarab ic
Ġrob bin
ĠfarklÄ± dÄ±r
ĠÃ¼lke de
ĠÃ¼lke lerde
ĠÃ¶ÄŁren mek
Ġkendi me
ĠÃ¶nemli si
mad Ä±
mad Ä±ÄŁÄ±
Ġbah Ã§e
ĠsÄ±k Ã§a
ĠsÄ±k lÄ±kla
Ġho le
Ġho ok
Ġmi x
Ġplan ning
Ġonun la
ĠÅŁe fkat
Ġadam Ä±
Ġadam larÄ±n
Ġ40 1
Ġhakk Ä±ndaki
ĠbazÄ± larÄ±nÄ±
aj lar
ben zer
muÅŁ tum
Ġak l
Ġdr un
Ġgi diyor
ĠhÄ±z da
ĠhÄ±z lan
Ġcent er
Ġcent ral
Ġfil istin
Ġfik ri
ĠeÅŁ i
ĠeÅŁ it
ĠeÅŁ of
ĠeÄŁ ite
med ik
Ġinv ited
Ġinv olved
Ġtoo th
Ġdem ograph
Ġdest roy
Ġdest itut
ĠgÃ¶z le
ĠseÃ§ mek
ĠseÃ§ imi
duÄŁ um
Ġetmek tedir
Ġetti e
Ġtrans formation
Ġtrans gend
Ġmode li
Ġlet ters
Ġsoru lar
Ġolacak lar
Ġolacak tÄ±r
ĠkoÅŁ ul
ĠkoÅŁ tur
ĠkoÅŁ maya
Ġpolit ika
Ġpolit ical
Ã¢ n
ĠbÄ±rak tÄ±m
Ġdik ika
Ġdik dÃ¶rt
Ġdik kate
Ġyay Ä±m
Ġyay gÄ±n
Ġgit mek
Ġgit miÅŁ
Ġgit tiÄŁimde
Ġkut uya
Ġpas s
Ġinst itutions
Ġinst allations
ĠÃ§ev rili
ĠÅŁirket i
Ġreal ity
Ġann an
Ġann ie
Ġanim at
Ġolur sam
Ġalan Ä±nda
Ġsev gil
Ġsev diÄŁim
ĠyaptÄ±ÄŁ Ä±
duc ing
Ġbizim le
Ġhayal et
ĠyaklaÅŁ Ä±m
ĠkarÅŁÄ±laÅŁ tÄ±m
ĠkarÅŁÄ±laÅŁ tÄ±lar
Ġtoplum un
Ġrobot lar
biz ler
bur gh
ys is
Ġlar ger
Ä±la bileceÄŁ
Ġbr it
Ġbr ent
Ġbr anson
Ġbla me
Ġbra ille
Ġsur vi
Ġsur face
Ġsur gery
Ġsur round
ĠsÄ±r f
ĠsÄ±r alar
Ġsound s
Ġder ler
Ġder inden
Ġgive directly
Ġmus lin
Ġkan ak
Ġkan Ä±t
Ġplay ing
Ġplay ed
ayd Ä±m
Ġweb site
Ġrun ning
ĠbaÅŁar Ä±lÄ±
ĠbaÅŁlad Ä±ÄŁÄ±mda
ĠparÃ§ alar
Ġdeney imi
Ġhayat Ä±nÄ±
Ġhayat tayÄ±m
Ġyarat Ä±k
Ġyarat Ä±yor
Ġyarat tÄ±
ĠÅŁeh ri
ĠÅŁeh rin
Ġmodel s
Ġdevelop ed
bun larÄ±n
bun lardan
pa ign
ular Ä±ndan
Ġent er
Ä±t mak
Ġav aaz
Ġav rupa
Ġald Ä±lar
Ġald atÄ±cÄ±
Ġser vices
Ġser best
ĠyÄ±ld Ä±z
Ġmin nes
Ġmiss ing
ĠkÄ±z lar
ĠkÄ±z gÄ±n
ilmiÅŁ ti
Ġfact or
Ġinan Ä±yoruz
Ġnere ye
lamak la
ĠÃ§Ã¶z Ã¼n
ĠÃ§Ã¶z mÃ¼ÅŁ
ĠvÃ¼c ut
Ġrec ognize
Ġanlat tÄ±ÄŁ
Ġsaat te
Ġlight s
Ġru les
Ġru fus
Ġark asÄ±na
ĠgÃ¶rÃ¼yor um
Ġsub t
ĠdÃ¼ÅŁÃ¼nÃ¼yor um
ĠdÃ¼ÅŁÃ¼nÃ¼yor dum
Ġolabilir ler
Ġelek tro
Ġelect ronic
Ġhappen ing
bileceÄŁ iniz
Ġcommun ism
Ġihtiyac Ä±nÄ±z
bo ok
fi dia
lendir me
lendir mesini
ĠtaÅŁ Ä±
ĠtaÅŁ Ä±n
ĠtaÅŁ Ä±y
ĠaÅŁ k
ĠaÅŁ Ä±rÄ±
Ġber trand
Ġber kshire
Ġsal Ä±nÄ±m
Ġsek o
Ġsek iz
Ġsek tÃ¶r
Ġdir en
Ġded iler
Ġyal e
ĠyÃ¶n et
ĠyÃ¶n temle
Ġmas aya
Ġmas sive
Ġmed ya
Ġkom p
ley iciler
ons ib
Ġcap sule
Ġanlam Ä±
Ġanlam Ä±na
Ġbilim adamÄ±
ĠbÃ¼yÃ¼ me
ĠbÃ¼yÃ¼ meyi
ĠbÃ¼yÃ¼ dÃ¼m
ĠdÃ¼ÅŁÃ¼ne lim
Ġsizin le
Ġboy utta
ĠgÃ¶rev lendir
Ġkendiler ine
ĠÃ¼st Ã¼n
ĠÃ¼st esinden
ĠÃ§evre sel
Ġhikay esi
ney s
Ġ6 0
Ġ6 4
Ġ9 0
Ġ9 7
Ġ9 9
ĠÃ¼re tim
Ġbar ack
Ġbek ler
Ġbek liyor
Ġbek leyin
Ġsil icon
Ġsil ikon
Ġsci ence
Ġseri ously
Ġiy isi
Ġiy ileÅŁ
Ġila c
ĠdÃ¼z en
Ġwil ly
Ġwil liam
Ġyen ilen
Ġhop ing
ĠhÃ¼cre leri
Ġmal iyet
Ġmal ze
Ġmac into
Ġkit ab
Ġkes im
Ġcl inton
Ġcer rahi
Ġfak e
Ġelim ize
Ġinvest ig
Ġinvest ments
lerimiz deki
Ġval ue
Ġval ley
Ġval entine
Ġdef inition
Ã¼nÃ¼z de
Ġum ud
ĠuÄŁ ultu
Ġhav uz
Ġhav ada
Ġyapabil diÄŁ
Ġyapabil iyorlardÄ±
Ġ13 0
Ġ13 7
Ġprodu ce
ĠdeÄŁer inde
Ġcont act
Ġcont rast
Ġkonu da
Ġgenel likle
ĠbaÄŁÄ±m lÄ±lÄ±k
ĠbaÄŁÄ±m sÄ±z
ĠyetiÅŁ tir
ĠÃ¶lÃ¼m cÃ¼l
Ġfinal ist
Ġcolle ge
ograph y
Ġblack more
Ġhissediyor um
Ġimportant ly
Ġfollow ing
pek Ã¢
pek ala
rat s
rat or
ĠÄ±ÅŁ Ä±ÄŁÄ±
Ġtun g
Ġbott le
Ġotur an
Ġdin amik
ĠdÃ¶ nelim
Ġwalk ing
Ġgar b
Ġgar den
Ġgar za
Ġhip ermet
Ġmiy di
Ġmach ines
Ġmamm als
Ġmamm ografi
Ġcirc u
Ġcirc umstan
Ġpet ri
Ġpri v
Ġpri ce
Ġpri ces
Ġfun ny
Ġfel Ã§
Ġeg ypt
Ġeg ocentric
Ġindu s
Ġvir al
Ġvir gini
Ġbeh avi
Ġuc u
Ä±rd ak
Ġrem ind
Ġanlay am
Ġanlay ana
Ġren k
Ġren de
Ġengine ers
Ġchar ge
Ġchar acter
Ġchar acters
Ġchang es
ĠgÃ¶rd Ã¼nÃ¼z
Ġconst ruct
Ġconst raint
Ġconst ruction
ĠkadÄ±n larÄ±n
Ġcomput ers
Ġedil di
Ġilet ken
Ġpost modern
Ġpost secret
Ġpoint s
Ġdeniz de
Ġpres ent
Ġmuh temel
Ġmuh afaz
Ġbulund uÄŁu
Ġpartic les
Ġkayb ederiz
ĠaÃ§Ä±k Ã§a
Ġscreen ing
Ġnerede yse
belki de
br idge
go ing
nit ive
vat ive
Ġ7 0
Ġ7 2
Ġsou theast
Ġsnow den
Ġic in
Ġdok u
Ġmar ine
Ġmem ber
Ġmem bers
Ġcur rent
Ġpen gu
Ġpen cer
Ġpen zias
Ġfree ly
liÄŁ ine
lish ed
asyon u
asyon larÄ±n
amaz sÄ±nÄ±z
amaz sÄ±n
ete de
Ġlate ly
ĠanlaÅŁ Ä±ldÄ±
Ġolmas Ä±nÄ±n
Ġsol ve
ĠÃ¶de me
ĠÃ¶de yen
Ġlist en
Ġrad ical
Ġrad io
Ġyapar Ä±z
Ġyapar sanÄ±z
Ġ18 12
Ġconf lict
Ġconv entional
Ġsayf a
Ġsayf asÄ±
Ġ26 0
Ġ26 6
ĠgÃ¼ney doÄŁu
hep imiz
hep imizin
acaÄŁÄ±mÄ±z Ä±
Ġolmad Ä±ÄŁÄ±
Ġemp ath
Ġemp ati
Ġspeak ing
ĠdÃ¶nem lerinde
Ġmerkez i
ĠkÄ±sm Ä±
Ġkork unÃ§
ĠbaÅŁarÄ±sÄ±z lÄ±k
Ġenvironment al
kend isi
rum baugh
rip t
ydi a
Ġ8 5
Ġtit an
Ġtit le
Ġaer odinamik
Ġaer odynam
ĠbiÃ§ imde
Ġoh io
Ġopt imize
Ġiler iye
ĠiliÅŁ ki
Ġdist ract
Ġwonder ed
Ġwonder ful
Ġmim ar
Ġmot or
Ġpie ces
Ġequ ation
Ġeff icient
amer ika
ĠÃ§Ã¶ p
Ġvict ories
Ġvict ims
Ġbegin ning
ĠuÃ§ an
ĠalÄ±n mÄ±ÅŁ
Ġseem s
Ġsefer de
Ġyapmam Ä±ÅŁ
ĠdaÄŁ Ä±tmak
ĠteÅŁ vik
istic ation
ĠbaÅŁlam Ä±ÅŁ
Ġprof es
Ġprof ess
Ġproje de
Ġetraf ta
Ġsonuc unu
Ġbiliyor sunuz
Ġtrend s
Ġmobil ya
Ġconnect ed
Ġistiyor sanÄ±z
ĠyaÅŁay abile
Ġmakine ler
Ġmakine leri
Ġparal ysis
Ġpress ure
Ġboz uk
Ġyoks ul
Ġokum ak
Ġokum aya
ĠgeÃ§ir dim
Ġcare er
Ġuzak laÅŁ
ĠafrikalÄ± lar
ĠduyduÄŁ um
ĠgÃ¶stere ceÄŁim
Ġ198 2
Ġ198 4
ĠhÄ±zlÄ± ca
Ġdikkat ini
Ġdikkat inizi
Ġ201 3
Ġ201 5
ĠmÃ¼hendis liÄŁi
Ġtelev izyon
Ġhikaye ler
Ġciddi ye
Ġdakik alÄ±k
Ġmatematik sel
Ġdrug s
Ġfantast ik
baz en
face book
gir l
ko fi
mil o
nes sed
oli ver
och s
pet er
vide o
Ġaw ful
Ġaw esome
Ġbor Ã§
Ġbay aÄŁÄ±
Ġband ura
Ġbise ksÃ¼el
Ġbise xual
Ġthous and
Ġthous ands
Ġsey ahat
Ġocc ur
Ġocc up
Ã¼st Ã¼
Ġdream s
Ġdoktor larÄ±n
ĠyÃ¶ nelik
att le
Ġgra vity
Ġhen Ã¼z
Ġhen ry
Ġhot el
Ġmort is
ĠkÄ±r Ä±lgan
ĠkÃ¼t Ã¼ph
ĠkÃ¼t leÃ§ek
Ġcle an
Ġcou ple
Ġcou chsur
Ġcart ilage
Ġcust om
Ġcust oms
Ġcog nitive
Ġpal estinian
Ġfig ured
Ġferm i
Ġferm at
ĠnÃ¶ ron
Ġbuy du
Ġvol ta
Ġvol unte
ĠÅŁar j
ĠÃ¶ldÃ¼r mek
Ġass ignments
Ġlider ler
Ġlider lerin
Ġstruct ure
Ġstruct ural
Ä±lmasÄ± yla
Ġtehlike li
Ġsha w
Ġprotest s
Ġmean ing
Ġcho osing
Ġbenz eri
Ġsuper star
Ġsuffer ed
Ġkarak terlerin
Ġadvan ces
Ġaddict ion
Ġyemek lerini
Ġsorum l
ĠayÄ±r mak
ĠdÃ¼ÅŁÃ¼nÃ¼r seniz
Ġedin burgh
Ġeders iniz
ĠyaÅŁadÄ±k larÄ±
Ġkonus unda
Ġevren de
Ġparad ig
ĠgÃ¼nÃ¼mÃ¼z de
Ġexper iment
Ġresp on
Ġresp onsib
tuÄŁ unu
Ġ196 8
Ġ196 9
Ġ199 0
Ġ199 8
ĠdÃ¶nÃ¼ÅŁ Ã¼m
ĠdÃ¶nÃ¼ÅŁ tÃ¼
Ġphys ician
Ġmateri al
Ġmateri als
ĠÃ¶ÄŁrene bilirsiniz
Ġdrink ing
ĠgÃ¶zÃ¼k Ã¼yor
Ġtelefon larÄ±
Ġdraw ing
Ġcontin ent
Ġcontin ue
Ġhissediyorsunuz dur
ĠdÃ¶nd Ã¼ÄŁÃ¼nÃ¼
Ġmikt arÄ±
Ġmikt arda
Ġindust ry
Ġindust rial
ĠhatÄ±rlat tÄ±
Ġhyper text
Ġhyper card
Ġastronom i
bet te
bild ik
kol ay
nov a
par ate
Ġtic aret
ĠtÄ±p kÄ±
Ġtiss ue
Ġbin lerce
Ġbon ds
Ġbre ak
Ġbol um
anÄ±z da
Ġsn ack
Ġsing le
Ġsem ant
Ġswe atsu
Ġoce an
Ġwr iter
Ġwak e
Ġyold ur
Ġgand hi
Ġgaz etede
Ġhir shhorn
Ġhed y
Ġhes ap
Ġmek tuplar
Ġmic rob
ĠmaÄŁ ar
Ġmuy bridge
Ġkre di
Ġkul Ã¼
Ġkabile ye
Ġkirs ch
Ġcam paign
Ġciv il
Ġpak istan
Ġpaz ar
Ġpiy as
Ġpati ents
Ġfool s
Ġfonksiyon un
Ġess entially
Ġintro du
Ġinfect ion
Ġniyet li
Ġbirey ler
Ġoffer ed
Ġbug Ã¼nkÃ¼
Ġbuff ett
ĠÃ§at Ä±ÅŁ
ĠÃ§oc uÄŁum
ĠÃ§erÃ§e ve
Ġvad isi
Ġvent ure
Ġviol ence
Ġweigh ed
Ġdec ision
ĠdehÅŁ et
Ġissu es
Ġug anda
Ġlu ke
Ġlou ise
Ġluc y
Ġref ah
Ġrel ationsh
Ġrecent ly
Ġanal og
Ġansw er
ĠÃ¶lÃ¼ me
Ġalman ya
Ġfore head
Ġste ve
Ġarch itect
Ġargu e
Ġwashing ton
Ġyapabile ceÄŁi
Ġdav ranÄ±ÅŁ
char lie
Ġzih n
Ġtep k
Ġgeze gen
Ġshar on
Ġetik et
Ġsonr aki
ĠpeÅŁ inden
Ġjud gment
Ġbilinc in
ĠgÃ¶rmez den
Ġexact ly
Ġisters eniz
Ġevent ually
Ġquick ly
Ġactiv ity
Ġgenuine ly
Ġresult s
Ġzorluyor uz
Ġaccomp an
Ġduyul ur
Ġyakalay amazsÄ±n
look ing
Ġesp ys
ĠetkileÅŁ imli
Ġcrit ical
Ġrepe at
Ġrepul sive
ĠgeldiÄŁ imde
ĠkÃ¶y de
Ġaktiv ite
Ġkorum ak
Ġdemocrac y
Ġinclu ding
Ġgider ken
ĠdÃ¼ÅŁÃ¼ndÃ¼ÄŁ Ã¼m
Ġcommunic ation
Ġearli er
Ġindivid ual
Ġstopp ed
ĠbaÄŁÄ±mlÄ± sÄ±
Ġlaborat uvar
Ġkurtul muÅŁ
Ġincredi ble
Ġincreasing ly
Ġgalak sinin
Ġgalax y
Ġhorizon tal
Ġmeydan a
Ġeffect ive
Ġverecek siniz
Ġyoksull uk
ĠÃ¼niversit esi
Ġiddi alÄ±
Ġgentlem an
Ġinequ ality
ĠÃ§iftÃ§ ilere
Ġcontribut ing
ĠadlandÄ±rd Ä±ÄŁÄ±m
ĠÃ¶lÃ§Ã¼ de
dÃ¼ny ada
Ġaptal ca
Ġopportun ity
Ġmulti ple
Ġebeveyn ler
ĠÃ§Ä±lgÄ±n c
Ġassoci ated
Ġdiscover ies
bl ing
eliz abeth
full y
foc used
haz Ä±r
hiÃ§ bir
lus ive
lock ed
mach ines
night ingale
plant s
prote cted
rand aki
tod ay
yere l
yaÅŁ am
zbo lda
ÃŃ a
ĠÃ¼y esi
Ġtiy atro
ĠtiÅŁ Ã¶rt
Ġtans iyon
Ġtag s
Ġtud or
Ġaks ine
Ġbart ok
Ġbase ball
Ġblo oms
Ġthom as
Ġsle ep
Ġsand alye
Ġsous a
Ġoto b
Ġoper ate
Ġosc illate
ĠdÃ¼r Ã¼st
Ġdang erous
Ġdyn am
Ġwit nessed
Ġwif e
Ġwals ingham
Ġwyn n
Ġyiye cek
orre ct
Ġgpr s
Ġhiz met
Ġhet erose
Ġhone st
Ġhath away
Ġhillar y
alici a
Ġmou th
Ġmalar ia
Ġmoun tain
Ġmahk um
Ġmalth us
Ġmahat ma
ĠkÄ±k Ä±rdak
Ġkuk l
Ġkag ame
Ġkili se
ĠkÄ±sÄ± t
Ġkamp an
Ġkula ÄŁ
Ġkirib ati
Ġcult ure
Ġpik sel
Ġpah alÄ±
Ġpers uade
Ġpors che
Ġpater ÃŃa
Ġpupp ets
Ġporfir io
Ġfed eral
Ġfund am
Ġfilde s
Ġfie ld
Ġeur opean
Ġeith er
Ġebo la
Ġince lemek
Ġinte gr
Ġintim ate
Ġnik e
Ġnaz ikÃ§e
Ġnel son
imag ine
Ġveget able
Ġvus i
Ġvatand aÅŁ
Ġdeod orant
Ġdevi ce
Ġbeyon d
Ġisvi Ã§re
Ġitib aren
ĠÅŁaÅŁ Ä±r
ĠÅŁid det
ĠÅŁiÅŁ e
ĠÅŁark Ä±
ĠÅŁÃ¼p he
okrat lar
Ġlands cape
Ġlomb ro
Ġlonge vity
Ġdopam in
Ġrect ang
Ġreag an
Ġrezer v
Ġremem ber
Ġanti gu
Ġangri er
abag ina
Ġsoft ware
Ġsoph istication
ĠiÃ§gÃ¼ dÃ¼
Ġhairst yles
Ġalber t
Ġforgot ten
Ġasper ger
Ġasbest os
Ġsaus ages
Ġrna sel
Ġraman ujan
Ġruses abagina
Ġsecur ity
Ġstuc k
Ġstup id
Ġstomach ion
Ġyapmac Ä±k
Ġenge llileri
Ġenorm ous
ĠendÃ¼ str
Ġabach a
Ġgoldfar b
Ã¼rlÃ¼ ÄŁe
Ġshaf fer
Ġprovid ing
Ġpromis ing
Ġchlam ydia
Ġchlad ni
Ġchev al
Ġbenef it
Ġsonsuz a
Ġjump s
Ġjurvet son
Ġlaunch ed
Ġlamar r
Ġtranse ksÃ¼el
Ġexcept ion
Ġextre me
Ġlesbi an
Ġlezbiy en
Ġsomewh ere
Ġyester day
Ġcompos ition
Ġambal ajlar
Ġburaday ken
Ġnowaday s
Ġokina wa
Ġbulldoz ed
Ġcarry ing
Ġsylvi a
Ġmonoch rom
Ġemerg ing
Ġiktis adi
Ġtraged y
Ġfavor ite
Ġcochran e
Ġrobbin s
Ġdestroy ed
Ġtransgend ered
ĠdikdÃ¶rt gen
Ġsevgil iler
Ġserbest Ã§e
Ġminnes ota
ĠsektÃ¶r lere
Ġmacinto sh
Ġhipermet in
Ġcircumstan ces
Ġegocentric ity
Ġvirgini a
Ġbehavi or
Ġmuhtemel en
Ġaerodynam ic
Ġtelevizyon da
ĠkÃ¼tÃ¼ph ane
Ġcouchsur fing
Ġsweatsu its
Ġmicrob es
Ġrelationsh ip
